const unsigned char dht_classifier_tflite[] = {
  0x1c, 0x00, 0x00, 0x00, 0x54, 0x46, 0x4c, 0x33, 0x14, 0x00, 0x20, 0x00,
  0x1c, 0x00, 0x18, 0x00, 0x14, 0x00, 0x10, 0x00, 0x0c, 0x00, 0x00, 0x00,
  0x08, 0x00, 0x04, 0x00, 0x14, 0x00, 0x00, 0x00, 0x1c, 0x00, 0x00, 0x00,
  0x98, 0x00, 0x00, 0x00, 0xf0, 0x00, 0x00, 0x00, 0x4c, 0x21, 0x00, 0x00,
  0x5c, 0x21, 0x00, 0x00, 0x2c, 0x2e, 0x00, 0x00, 0x03, 0x00, 0x00, 0x00,
  0x01, 0x00, 0x00, 0x00, 0x10, 0x00, 0x00, 0x00, 0x00, 0x00, 0x0a, 0x00,
  0x10, 0x00, 0x0c, 0x00, 0x08, 0x00, 0x04, 0x00, 0x0a, 0x00, 0x00, 0x00,
  0x0c, 0x00, 0x00, 0x00, 0x1c, 0x00, 0x00, 0x00, 0x3c, 0x00, 0x00, 0x00,
  0x0f, 0x00, 0x00, 0x00, 0x73, 0x65, 0x72, 0x76, 0x69, 0x6e, 0x67, 0x5f,
  0x64, 0x65, 0x66, 0x61, 0x75, 0x6c, 0x74, 0x00, 0x01, 0x00, 0x00, 0x00,
  0x04, 0x00, 0x00, 0x00, 0x90, 0xff, 0xff, 0xff, 0x0d, 0x00, 0x00, 0x00,
  0x04, 0x00, 0x00, 0x00, 0x08, 0x00, 0x00, 0x00, 0x6f, 0x75, 0x74, 0x70,
  0x75, 0x74, 0x5f, 0x30, 0x00, 0x00, 0x00, 0x00, 0x01, 0x00, 0x00, 0x00,
  0x04, 0x00, 0x00, 0x00, 0x96, 0xde, 0xff, 0xff, 0x04, 0x00, 0x00, 0x00,
  0x0c, 0x00, 0x00, 0x00, 0x6b, 0x65, 0x72, 0x61, 0x73, 0x5f, 0x74, 0x65,
  0x6e, 0x73, 0x6f, 0x72, 0x00, 0x00, 0x00, 0x00, 0x02, 0x00, 0x00, 0x00,
  0x34, 0x00, 0x00, 0x00, 0x04, 0x00, 0x00, 0x00, 0xdc, 0xff, 0xff, 0xff,
  0x10, 0x00, 0x00, 0x00, 0x04, 0x00, 0x00, 0x00, 0x13, 0x00, 0x00, 0x00,
  0x43, 0x4f, 0x4e, 0x56, 0x45, 0x52, 0x53, 0x49, 0x4f, 0x4e, 0x5f, 0x4d,
  0x45, 0x54, 0x41, 0x44, 0x41, 0x54, 0x41, 0x00, 0x08, 0x00, 0x0c, 0x00,
  0x08, 0x00, 0x04, 0x00, 0x08, 0x00, 0x00, 0x00, 0x0f, 0x00, 0x00, 0x00,
  0x04, 0x00, 0x00, 0x00, 0x13, 0x00, 0x00, 0x00, 0x6d, 0x69, 0x6e, 0x5f,
  0x72, 0x75, 0x6e, 0x74, 0x69, 0x6d, 0x65, 0x5f, 0x76, 0x65, 0x72, 0x73,
  0x69, 0x6f, 0x6e, 0x00, 0x11, 0x00, 0x00, 0x00, 0x58, 0x20, 0x00, 0x00,
  0x50, 0x20, 0x00, 0x00, 0x40, 0x1e, 0x00, 0x00, 0x30, 0x1d, 0x00, 0x00,
  0x20, 0x1c, 0x00, 0x00, 0x90, 0x1b, 0x00, 0x00, 0x00, 0x19, 0x00, 0x00,
  0xdc, 0x18, 0x00, 0x00, 0xcc, 0x10, 0x00, 0x00, 0xbc, 0x00, 0x00, 0x00,
  0xb4, 0x00, 0x00, 0x00, 0xac, 0x00, 0x00, 0x00, 0xa4, 0x00, 0x00, 0x00,
  0x9c, 0x00, 0x00, 0x00, 0x94, 0x00, 0x00, 0x00, 0x74, 0x00, 0x00, 0x00,
  0x04, 0x00, 0x00, 0x00, 0x56, 0xdf, 0xff, 0xff, 0x04, 0x00, 0x00, 0x00,
  0x60, 0x00, 0x00, 0x00, 0x0c, 0x00, 0x00, 0x00, 0x08, 0x00, 0x0e, 0x00,
  0x08, 0x00, 0x04, 0x00, 0x08, 0x00, 0x00, 0x00, 0x10, 0x00, 0x00, 0x00,
  0x28, 0x00, 0x00, 0x00, 0x00, 0x00, 0x06, 0x00, 0x08, 0x00, 0x04, 0x00,
  0x06, 0x00, 0x00, 0x00, 0x04, 0x00, 0x00, 0x00, 0x01, 0x00, 0x00, 0x00,
  0xea, 0x03, 0x00, 0x00, 0x0c, 0x00, 0x18, 0x00, 0x14, 0x00, 0x10, 0x00,
  0x0c, 0x00, 0x04, 0x00, 0x0c, 0x00, 0x00, 0x00, 0x93, 0xcd, 0x9c, 0xd3,
  0x68, 0x10, 0x30, 0x44, 0x02, 0x00, 0x00, 0x00, 0x02, 0x00, 0x00, 0x00,
  0x04, 0x00, 0x00, 0x00, 0x06, 0x00, 0x00, 0x00, 0x32, 0x2e, 0x31, 0x39,
  0x2e, 0x30, 0x00, 0x00, 0xc2, 0xdf, 0xff, 0xff, 0x04, 0x00, 0x00, 0x00,
  0x10, 0x00, 0x00, 0x00, 0x32, 0x2e, 0x31, 0x37, 0x2e, 0x30, 0x00, 0x00,
  0x00, 0x00, 0x00, 0x00, 0x00, 0x00, 0x00, 0x00, 0xc0, 0xd3, 0xff, 0xff,
  0xc4, 0xd3, 0xff, 0xff, 0xc8, 0xd3, 0xff, 0xff, 0xcc, 0xd3, 0xff, 0xff,
  0xd0, 0xd3, 0xff, 0xff, 0xf2, 0xdf, 0xff, 0xff, 0x04, 0x00, 0x00, 0x00,
  0x00, 0x10, 0x00, 0x00, 0x03, 0xf8, 0x00, 0xff, 0xff, 0xff, 0x08, 0x06,
  0xfe, 0x01, 0xfc, 0x00, 0xff, 0x00, 0x00, 0x00, 0x06, 0xff, 0x00, 0x05,
  0x00, 0x02, 0x00, 0x00, 0x05, 0xe8, 0x00, 0xff, 0xfe, 0x07, 0x00, 0x05,
  0xf1, 0x03, 0x00, 0x04, 0xff, 0x00, 0x01, 0x00, 0x01, 0x00, 0x05, 0x00,
  0x06, 0x01, 0x09, 0xfe, 0x02, 0x81, 0x00, 0x00, 0x0a, 0xff, 0x07, 0x02,
  0xf5, 0x08, 0x05, 0xfd, 0xfe, 0x01, 0x02, 0x00, 0x0d, 0xf9, 0x00, 0x09,
  0x02, 0xff, 0x0a, 0x0d, 0x00, 0x04, 0xf7, 0x00, 0xff, 0x00, 0x03, 0x00,
  0x0b, 0xff, 0x00, 0x03, 0xfa, 0x04, 0x00, 0x00, 0x06, 0x05, 0x00, 0x02,
  0x02, 0x14, 0x00, 0x0f, 0x0b, 0x0a, 0x00, 0x09, 0x01, 0x02, 0x00, 0x00,
  0x01, 0xff, 0x12, 0x01, 0x0c, 0xee, 0x1a, 0x00, 0xe9, 0x7f, 0x06, 0x00,
  0x17, 0x01, 0x10, 0x08, 0x11, 0x04, 0x06, 0xfc, 0x02, 0x04, 0x2a, 0x00,
  0xce, 0xe4, 0x00, 0xfc, 0x02, 0xfc, 0xfc, 0xc2, 0x09, 0x09, 0xcb, 0x00,
  0xf3, 0x00, 0x00, 0x00, 0xff, 0x05, 0x00, 0xf6, 0xf5, 0xf5, 0x00, 0x00,
  0xad, 0xec, 0x01, 0x0b, 0x02, 0xc8, 0x00, 0xe1, 0x1d, 0xb0, 0x00, 0xb4,
  0x0e, 0xfc, 0xff, 0x09, 0xfa, 0x00, 0xc6, 0xf9, 0xda, 0xb8, 0x81, 0x05,
  0x32, 0x30, 0x02, 0x00, 0xa7, 0xf9, 0xc8, 0x04, 0xf5, 0xfd, 0xc4, 0xb8,
  0x00, 0xfa, 0x13, 0x00, 0x02, 0x06, 0x00, 0x09, 0x03, 0x08, 0xfa, 0xff,
  0x05, 0x08, 0x00, 0x00, 0x06, 0x00, 0x09, 0x00, 0xfc, 0x07, 0x00, 0xfc,
  0x03, 0x06, 0x00, 0x00, 0xfe, 0x2b, 0x00, 0x06, 0x02, 0x04, 0x00, 0x02,
  0x18, 0x03, 0x00, 0xfd, 0x07, 0x02, 0x02, 0x07, 0x0c, 0x07, 0xfe, 0x01,
  0xfe, 0x05, 0x0a, 0x08, 0xed, 0x81, 0x08, 0x00, 0xfe, 0x07, 0x04, 0x06,
  0x10, 0xfa, 0xff, 0xfc, 0x03, 0x04, 0xf9, 0x00, 0x23, 0x58, 0x00, 0x22,
  0x1b, 0xff, 0x1d, 0x24, 0x08, 0x24, 0x41, 0x01, 0x19, 0x00, 0x24, 0x00,
  0x30, 0x1b, 0x00, 0x1a, 0x36, 0x1c, 0x00, 0x00, 0x19, 0x58, 0x01, 0x0e,
  0x19, 0x50, 0x00, 0x3c, 0x7f, 0x22, 0x00, 0x34, 0x02, 0x06, 0x09, 0x18,
  0x17, 0x17, 0x15, 0x03, 0x11, 0x5a, 0x32, 0x0f, 0xae, 0x3f, 0x22, 0x00,
  0x0e, 0x08, 0x31, 0x25, 0x2d, 0x08, 0x35, 0x6c, 0x0b, 0x2a, 0x18, 0x00,
  0xf3, 0x11, 0x00, 0xfb, 0xfd, 0xfd, 0x08, 0xf6, 0xff, 0xfd, 0x0a, 0x00,
  0x00, 0x00, 0xfb, 0x00, 0x0e, 0xff, 0x00, 0x08, 0x02, 0xff, 0x00, 0x00,
  0xf8, 0x0b, 0x00, 0xfd, 0xfd, 0xf4, 0x00, 0xf8, 0x25, 0xf4, 0x00, 0xf5,
  0xfc, 0xfb, 0xfd, 0xfe, 0xfc, 0xfc, 0xf2, 0x00, 0xf7, 0xfe, 0x00, 0xfb,
  0x0d, 0x7f, 0xfd, 0x00, 0xf4, 0xfa, 0xf6, 0xfd, 0x10, 0x0d, 0xf9, 0x0b,
  0xfb, 0xfb, 0xf8, 0x00, 0x05, 0xe7, 0x00, 0xfd, 0xf7, 0xf8, 0x49, 0xfe,
  0xf5, 0x09, 0xb7, 0x00, 0x00, 0x00, 0xf7, 0x00, 0x4d, 0xfe, 0x00, 0x23,
  0xd2, 0x00, 0x00, 0x00, 0x15, 0xc8, 0x00, 0xfc, 0xf0, 0x07, 0x00, 0xfa,
  0xe2, 0xf9, 0x00, 0x0b, 0x00, 0xfd, 0x00, 0xf3, 0x08, 0xfd, 0x11, 0x00,
  0x10, 0xaa, 0x07, 0xff, 0x14, 0x7f, 0xfc, 0x00, 0x07, 0xff, 0x10, 0xfe,
  0x01, 0x3e, 0xfe, 0xb2, 0x00, 0x06, 0xfd, 0x00, 0x19, 0xf2, 0x00, 0x0f,
  0x14, 0xfc, 0x3a, 0x31, 0x01, 0x03, 0xc9, 0x00, 0x01, 0x00, 0xf5, 0x00,
  0x14, 0x0d, 0x00, 0x24, 0xd5, 0x04, 0x00, 0x00, 0x2f, 0x81, 0xff, 0xfd,
  0x12, 0x65, 0x00, 0x51, 0x2f, 0x1e, 0x00, 0x2a, 0xf4, 0x04, 0xff, 0x00,
  0xfa, 0x03, 0x44, 0x05, 0x3c, 0xac, 0x27, 0x06, 0xe5, 0x2e, 0x1c, 0x00,
  0x3d, 0xfe, 0x48, 0x10, 0x25, 0x24, 0x1e, 0xec, 0x06, 0xf8, 0x0b, 0x00,
  0xff, 0x05, 0x00, 0x00, 0x05, 0xfe, 0xff, 0x02, 0x00, 0x01, 0xb4, 0x00,
  0x00, 0x00, 0xff, 0x00, 0xf4, 0xfd, 0x00, 0xfe, 0xc8, 0xff, 0x00, 0x00,
  0x04, 0xfe, 0x00, 0xfe, 0x03, 0x01, 0x00, 0xfe, 0xec, 0xfd, 0x00, 0xfb,
  0x01, 0x01, 0x02, 0xfd, 0xfd, 0x05, 0xfd, 0x01, 0xfa, 0xbf, 0xf9, 0xff,
  0x12, 0x75, 0x01, 0x00, 0xfd, 0xfe, 0xfb, 0x00, 0xfd, 0x05, 0xfc, 0x81,
  0x01, 0x03, 0x16, 0x00, 0x04, 0x05, 0x00, 0x01, 0xfd, 0xfe, 0x12, 0x03,
  0x00, 0x02, 0xf5, 0x00, 0xff, 0x00, 0x00, 0x00, 0x1b, 0xfe, 0x00, 0x0b,
  0xf8, 0x01, 0x00, 0x00, 0x04, 0xfd, 0x00, 0xff, 0xff, 0x05, 0x00, 0x03,
  0x13, 0x01, 0x00, 0xff, 0x00, 0xfd, 0xff, 0xff, 0x02, 0xfe, 0x0a, 0x01,
  0x08, 0xf4, 0x05, 0xff, 0xf0, 0x7f, 0x01, 0x00, 0x08, 0x00, 0x07, 0x00,
  0x13, 0x10, 0xff, 0xf9, 0xff, 0xfe, 0xf9, 0x00, 0x25, 0xcc, 0x00, 0x10,
  0x04, 0xfb, 0x16, 0x2e, 0x04, 0x0c, 0xfb, 0x00, 0xf9, 0x00, 0xfe, 0x00,
  0x10, 0xfe, 0x00, 0xf9, 0xf9, 0x01, 0x00, 0x00, 0x1a, 0xa1, 0x01, 0x03,
  0x0d, 0x50, 0x00, 0x3b, 0x44, 0x2d, 0x00, 0x23, 0xfc, 0xf3, 0x05, 0xfe,
  0x0e, 0xf9, 0x41, 0x02, 0x36, 0xe2, 0x50, 0x01, 0xed, 0x99, 0x0a, 0x00,
  0x2f, 0xff, 0x45, 0x0e, 0x11, 0x08, 0x10, 0x23, 0x07, 0x09, 0x7f, 0x00,
  0xdb, 0x12, 0x00, 0xf4, 0xf7, 0x02, 0xfb, 0xd5, 0xff, 0xfb, 0xe6, 0x00,
  0xf8, 0x00, 0xfb, 0x00, 0xdb, 0x02, 0x00, 0xe6, 0xd0, 0xff, 0x00, 0x00,
  0xd1, 0x81, 0x00, 0xfd, 0xfe, 0xd8, 0x00, 0xf4, 0xf9, 0xc9, 0x00, 0xdb,
  0x02, 0xfc, 0xf8, 0xfa, 0xff, 0xf8, 0xde, 0xfe, 0xdf, 0x88, 0xc7, 0xff,
  0xf8, 0x48, 0xf7, 0x00, 0xd1, 0xfd, 0xd6, 0xfa, 0xbf, 0xfe, 0xe1, 0xc4,
  0xf9, 0xf9, 0x07, 0x00, 0x00, 0xf7, 0x00, 0x02, 0xfa, 0xff, 0x42, 0xf8,
  0xfd, 0x02, 0x09, 0xff, 0x06, 0x00, 0xfc, 0x00, 0x7f, 0xfd, 0x00, 0x34,
  0x0e, 0x00, 0x00, 0x00, 0x06, 0xbb, 0xff, 0xfb, 0xf3, 0x21, 0x00, 0x09,
  0xe0, 0x09, 0x00, 0x12, 0xf5, 0xfc, 0xfa, 0xfe, 0x0d, 0xfc, 0x1f, 0x00,
  0x15, 0x0a, 0x1d, 0x00, 0x4a, 0x94, 0x04, 0x00, 0x0a, 0xfc, 0x0b, 0x06,
  0x09, 0x3a, 0xf6, 0x0b, 0xfd, 0x05, 0x14, 0x00, 0x01, 0x17, 0x00, 0x06,
  0x2a, 0x15, 0x03, 0xee, 0x0a, 0xfc, 0x62, 0x00, 0x09, 0x00, 0x1c, 0x00,
  0x08, 0x09, 0x00, 0xff, 0x5b, 0xff, 0x00, 0x00, 0xdb, 0x3c, 0x00, 0x0b,
  0x17, 0x04, 0x00, 0x08, 0x57, 0xfb, 0x00, 0x02, 0x07, 0x14, 0xfe, 0x06,
  0x10, 0x01, 0x09, 0xfe, 0xf6, 0x35, 0xe0, 0x09, 0xf6, 0xd9, 0x0d, 0x00,
  0xe4, 0x07, 0xf8, 0x01, 0x22, 0x08, 0x07, 0x7f, 0x05, 0x0a, 0x95, 0x00,
  0x05, 0x9e, 0x00, 0x01, 0xf7, 0xfc, 0xfe, 0xfe, 0xfa, 0xfd, 0xfa, 0x00,
  0xfb, 0x00, 0xfa, 0x00, 0xf6, 0xfe, 0x00, 0x02, 0x08, 0xff, 0x00, 0x00,
  0x05, 0xbb, 0x00, 0xfd, 0xfa, 0x01, 0x00, 0x00, 0x81, 0xff, 0x00, 0x03,
  0xfc, 0xf7, 0xfc, 0xf8, 0x02, 0xfc, 0x00, 0x01, 0x07, 0xfe, 0xee, 0xf9,
  0x1a, 0x8e, 0xf8, 0x00, 0x07, 0xfb, 0x03, 0xfe, 0xa5, 0x05, 0x02, 0xf2,
  0xfe, 0xfb, 0x13, 0x00, 0x12, 0x02, 0x00, 0xf2, 0xfa, 0xf4, 0x1c, 0x0f,
  0xf2, 0x01, 0xf4, 0xff, 0xf6, 0x00, 0xfc, 0x00, 0x41, 0xf9, 0x00, 0x16,
  0xf5, 0x04, 0x00, 0x00, 0x22, 0xb6, 0x00, 0xf6, 0xf4, 0x1e, 0x00, 0x09,
  0x12, 0x0e, 0x00, 0x1c, 0xf9, 0xfd, 0x00, 0xea, 0x04, 0xef, 0x1b, 0xfb,
  0x0b, 0xe7, 0x2a, 0xf7, 0x6a, 0x7f, 0xf6, 0x00, 0x1b, 0xfb, 0x18, 0xfc,
  0x1f, 0x10, 0x23, 0xef, 0xf7, 0xfb, 0x1e, 0x00, 0x03, 0x1e, 0x00, 0x0b,
  0x06, 0x01, 0x08, 0x08, 0x06, 0x05, 0x0a, 0x00, 0x06, 0x00, 0x09, 0x00,
  0x1a, 0x09, 0x00, 0x06, 0x0e, 0x05, 0x00, 0x00, 0x05, 0x28, 0x00, 0x08,
  0x05, 0x14, 0x00, 0x12, 0x27, 0x06, 0x00, 0x09, 0x05, 0x02, 0x04, 0x0a,
  0x0a, 0x08, 0x06, 0x00, 0x06, 0x13, 0x0b, 0x03, 0xeb, 0x7f, 0x08, 0x00,
  0x02, 0x06, 0x09, 0x0a, 0x07, 0x07, 0x0c, 0x27, 0x04, 0x06, 0xfa, 0x00,
  0xe0, 0xbe, 0x00, 0x33, 0x0f, 0x3f, 0x8e, 0x26, 0x0c, 0x2c, 0x04, 0x00,
  0x24, 0x00, 0x55, 0x00, 0x81, 0x1f, 0x00, 0xa0, 0xcd, 0x2a, 0x00, 0x00,
  0xcd, 0xc1, 0x00, 0x3f, 0x02, 0x0f, 0x00, 0xfc, 0x6a, 0x00, 0x00, 0xe8,
  0x49, 0x14, 0x1b, 0x3d, 0x3c, 0x36, 0xff, 0x02, 0xf6, 0xec, 0x5d, 0x1c,
  0x9a, 0x68, 0x4d, 0x00, 0xdd, 0x33, 0x0b, 0x43, 0xc1, 0x99, 0x0b, 0xbe,
  0x2b, 0x34, 0xea, 0x00, 0x0b, 0xe8, 0x00, 0xff, 0x03, 0x00, 0x04, 0x0f,
  0x02, 0xff, 0xf4, 0x00, 0xff, 0x00, 0x02, 0x00, 0x0c, 0xff, 0x00, 0x09,
  0xf9, 0x03, 0x00, 0x00, 0x07, 0xf1, 0x00, 0xfe, 0x01, 0x13, 0x00, 0x0f,
  0xc9, 0x0d, 0x00, 0x0a, 0x00, 0x00, 0x01, 0x00, 0x03, 0x00, 0x0c, 0x00,
  0x0b, 0xf5, 0x0c, 0xff, 0xf4, 0x81, 0x06, 0x00, 0x0c, 0xfe, 0x0f, 0x00,
  0xe9, 0x01, 0x0b, 0xfd, 0xff, 0x04, 0xfb, 0x00, 0x08, 0x18, 0x00, 0x08,
  0x04, 0x03, 0x0a, 0x0c, 0x03, 0x04, 0x03, 0x00, 0x02, 0x00, 0x05, 0x00,
  0x08, 0x04, 0x00, 0x02, 0x09, 0x04, 0x00, 0x00, 0x05, 0x1e, 0x00, 0x02,
  0x04, 0x0f, 0x00, 0x0f, 0x06, 0x08, 0x00, 0x08, 0x02, 0x04, 0x03, 0x05,
  0x04, 0x04, 0x08, 0x01, 0x09, 0x10, 0x05, 0x02, 0xf6, 0x7f, 0x08, 0x00,
  0x07, 0x01, 0x08, 0x08, 0x13, 0xfe, 0x0a, 0x15, 0x05, 0xff, 0x14, 0x00,
  0xea, 0xf5, 0x00, 0xf3, 0xf9, 0xff, 0xfe, 0xf0, 0xfe, 0xf9, 0x09, 0x00,
  0xf7, 0x00, 0xf7, 0x00, 0x24, 0xfe, 0x00, 0x0b, 0x0b, 0xf5, 0x00, 0x00,
  0xe8, 0x08, 0x00, 0xf8, 0xfe, 0xf1, 0x00, 0xed, 0x05, 0xe9, 0x00, 0xf1,
  0xfd, 0xf6, 0xf6, 0xfb, 0xf3, 0xf3, 0xeb, 0xfe, 0xf1, 0x16, 0xf9, 0xfa,
  0x18, 0x81, 0xf5, 0x00, 0xef, 0xf0, 0xf3, 0xf4, 0xf8, 0x06, 0xf1, 0x2a,
  0xf5, 0xfa, 0x15, 0x00, 0xff, 0xf9, 0x00, 0xfb, 0xfd, 0xfc, 0xff, 0x00,
  0xfd, 0xfd, 0x03, 0x00, 0xfc, 0x00, 0xfc, 0x00, 0x01, 0xfc, 0x00, 0xff,
  0x02, 0xfe, 0x00, 0x00, 0x02, 0xe6, 0x00, 0xfc, 0xfd, 0xff, 0x00, 0x01,
  0xeb, 0x01, 0x00, 0x00, 0xfb, 0xfb, 0xfe, 0xfd, 0xfd, 0xfd, 0x00, 0x00,
  0x00, 0x01, 0x00, 0xfd, 0x0b, 0x81, 0xfc, 0x00, 0x01, 0xfd, 0x01, 0xfe,
  0xfd, 0x00, 0xff, 0xff, 0xfc, 0xfb, 0x04, 0x00, 0xeb, 0xea, 0x00, 0xe8,
  0xfb, 0xf8, 0x07, 0xe6, 0xfa, 0xf9, 0x26, 0x00, 0xf1, 0x00, 0xf7, 0x00,
  0x1c, 0xf6, 0x00, 0x10, 0x17, 0xfa, 0x00, 0x00, 0xf5, 0x9f, 0x00, 0xf5,
  0xf7, 0xe6, 0x00, 0xf0, 0xd1, 0xec, 0x00, 0xee, 0xf2, 0xec, 0xf4, 0xf6,
  0xf6, 0xf0, 0xea, 0x00, 0xec, 0x27, 0x03, 0xf6, 0x02, 0x81, 0xf5, 0x00,
  0xf4, 0xf0, 0xee, 0xf6, 0xf6, 0x11, 0xf6, 0x41, 0xe6, 0xee, 0xd6, 0x00,
  0xf3, 0x16, 0x00, 0x04, 0x01, 0x01, 0x00, 0xea, 0x00, 0xff, 0x05, 0x00,
  0x00, 0x00, 0x00, 0x00, 0x09, 0x00, 0x00, 0xf8, 0xfc, 0x01, 0x00, 0x00,
  0xf1, 0x00, 0x00, 0x00, 0x02, 0xf4, 0x00, 0xf7, 0x00, 0xee, 0x00, 0xef,
  0x00, 0x00, 0x02, 0x02, 0x01, 0x02, 0xf2, 0xfe, 0xf5, 0xdf, 0xe2, 0x01,
  0x16, 0x7f, 0xfe, 0x00, 0xee, 0x03, 0xed, 0x01, 0x08, 0xff, 0xe8, 0x02,
  0x00, 0x02, 0x09, 0x00, 0xf9, 0xff, 0x00, 0xff, 0xfe, 0x00, 0xe5, 0xfe,
  0x00, 0x00, 0xf3, 0x00, 0xfd, 0x00, 0x01, 0x00, 0xde, 0xfd, 0x00, 0xdc,
  0xef, 0xff, 0x00, 0x00, 0xff, 0x15, 0x00, 0xfe, 0xfb, 0xff, 0x00, 0xf9,
  0xf0, 0x04, 0x00, 0xfb, 0xfe, 0xff, 0xfe, 0x02, 0xfe, 0xfd, 0x03, 0x00,
  0x01, 0xf2, 0x02, 0xfe, 0xfb, 0x81, 0xfe, 0x00, 0x02, 0x00, 0x03, 0xfe,
  0xfe, 0xdc, 0x05, 0xe4, 0x00, 0x00, 0x0e, 0x00, 0xf7, 0x0a, 0x00, 0xff,
  0xfd, 0x01, 0x02, 0xf2, 0x03, 0xff, 0xf2, 0x00, 0xff, 0x00, 0x00, 0x00,
  0x00, 0x01, 0x00, 0xf9, 0xfb, 0x01, 0x00, 0x00, 0xf3, 0xc6, 0x00, 0x00,
  0xfe, 0xf9, 0x00, 0xf7, 0xda, 0xf1, 0x00, 0xf2, 0x02, 0xfe, 0xff, 0xff,
  0x05, 0xfd, 0xf4, 0xfe, 0xf7, 0xd5, 0xe9, 0xff, 0x02, 0x81, 0x00, 0x00,
  0xf1, 0x01, 0xf2, 0x00, 0xe9, 0x03, 0xf3, 0xec, 0x00, 0xfd, 0x0e, 0x00,
  0xec, 0x07, 0x00, 0xf1, 0x01, 0xf4, 0xea, 0xec, 0xf8, 0xfc, 0xb8, 0xff,
  0xf2, 0x00, 0xef, 0x00, 0xd1, 0x00, 0x00, 0xda, 0xc1, 0xf6, 0x00, 0x00,
  0xf7, 0x81, 0x00, 0xf7, 0x02, 0x07, 0x00, 0xea, 0x88, 0xf4, 0x00, 0xea,
  0xf2, 0xf8, 0xf9, 0xf5, 0xf6, 0xf7, 0xeb, 0xfa, 0xf8, 0xbc, 0xd8, 0xea,
  0x22, 0xa3, 0xf7, 0x00, 0xff, 0xfd, 0xf3, 0xfb, 0xca, 0xec, 0xea, 0xa0,
  0xff, 0xed, 0x50, 0x00, 0xec, 0xf9, 0x00, 0xf7, 0xfc, 0xfd, 0x0b, 0xf0,
  0xfd, 0xfc, 0x06, 0x00, 0xf9, 0x00, 0xfc, 0x00, 0x11, 0xfe, 0x00, 0x0d,
  0x01, 0xfa, 0x00, 0x00, 0xeb, 0xee, 0x00, 0xf6, 0xfc, 0xf0, 0x00, 0xfa,
  0x12, 0xf2, 0x00, 0xf1, 0xfb, 0xf7, 0xf6, 0xfd, 0xf8, 0xf8, 0xf0, 0xfe,
  0xf0, 0x16, 0xff, 0xfc, 0xf8, 0x81, 0xfa, 0x00, 0xf2, 0xf7, 0xed, 0xfb,
  0x00, 0x10, 0xf0, 0x36, 0xf7, 0xf9, 0xf2, 0x00, 0x03, 0x08, 0x00, 0x00,
  0xfb, 0x01, 0xe7, 0x03, 0x02, 0x01, 0xd6, 0x00, 0x03, 0x00, 0xff, 0x00,
  0xe7, 0x02, 0x00, 0xd8, 0xde, 0x01, 0x00, 0x00, 0xff, 0x03, 0x00, 0xfd,
  0x06, 0xfa, 0x00, 0xff, 0xeb, 0x02, 0x00, 0x02, 0x03, 0x02, 0xfe, 0xff,
  0x00, 0x06, 0xf8, 0x01, 0xff, 0xe0, 0xfd, 0xfb, 0xf1, 0x81, 0xff, 0x00,
  0x01, 0x00, 0x00, 0xfa, 0x01, 0xe4, 0x01, 0xbd, 0x00, 0xff, 0xd1, 0x00,
  0x03, 0x29, 0x00, 0x08, 0x06, 0x00, 0x04, 0x08, 0x01, 0x04, 0xbe, 0x00,
  0x08, 0x00, 0x05, 0x00, 0x17, 0x03, 0x00, 0x02, 0xcd, 0x01, 0x00, 0x00,
  0x07, 0xe2, 0x00, 0x00, 0x05, 0x06, 0x00, 0x07, 0xf8, 0x03, 0x00, 0x05,
  0x05, 0xfa, 0x07, 0x0b, 0x03, 0x02, 0x07, 0x02, 0x04, 0xb3, 0xf2, 0x06,
  0xe1, 0xd4, 0x07, 0x00, 0x05, 0xfc, 0x07, 0x01, 0x17, 0x04, 0x04, 0x90,
  0xfe, 0x01, 0x81, 0x00, 0xf4, 0x01, 0x00, 0xfa, 0xfd, 0xff, 0xed, 0xf2,
  0x00, 0xfd, 0xed, 0x00, 0xfb, 0x00, 0xff, 0x00, 0xe5, 0xfe, 0x00, 0xe5,
  0xf4, 0xfc, 0x00, 0x00, 0xea, 0xd0, 0x00, 0xfe, 0xff, 0xfc, 0x00, 0xf8,
  0xe5, 0xf1, 0x00, 0xf6, 0xfb, 0xfd, 0xf9, 0xfb, 0xfc, 0xfc, 0xf5, 0xfe,
  0xf3, 0xe2, 0xe8, 0xff, 0x16, 0x81, 0xfd, 0x00, 0xf1, 0xfd, 0xf5, 0xfe,
  0xd3, 0xec, 0xf2, 0xe1, 0xfe, 0xfd, 0x47, 0x00, 0xfe, 0xdf, 0x00, 0xf5,
  0xfb, 0xf9, 0xf7, 0xfe, 0xfc, 0xf7, 0x01, 0x00, 0xf6, 0x00, 0xf8, 0x00,
  0x00, 0xfd, 0x00, 0x03, 0x04, 0xfb, 0x00, 0x00, 0x01, 0xbd, 0x00, 0xf5,
  0xfb, 0xfc, 0x00, 0x02, 0xe0, 0x02, 0x00, 0xfe, 0xf6, 0xf6, 0xfa, 0xfb,
  0xf7, 0xfa, 0xfe, 0xff, 0xff, 0x07, 0x03, 0xf8, 0x20, 0x81, 0xf8, 0x00,
  0xfe, 0xf6, 0x00, 0xfb, 0xeb, 0xfc, 0xf7, 0xfa, 0xf6, 0xf1, 0x1f, 0x00,
  0x06, 0x09, 0x00, 0x04, 0x03, 0x03, 0x05, 0x09, 0x03, 0x02, 0x0a, 0x00,
  0x01, 0x00, 0x04, 0x00, 0x06, 0x03, 0x00, 0x01, 0x07, 0x04, 0x00, 0x00,
  0x08, 0x22, 0x00, 0x02, 0x02, 0x13, 0x00, 0x11, 0x14, 0x0b, 0x00, 0x0d,
  0x01, 0x00, 0x02, 0x03, 0x05, 0x02, 0x0d, 0x01, 0x05, 0x13, 0x05, 0x03,
  0xf3, 0x7f, 0x05, 0x00, 0x0b, 0x00, 0x11, 0x04, 0x07, 0x03, 0x0b, 0x19,
  0x00, 0x00, 0x1a, 0x00, 0xf7, 0xc1, 0x00, 0xdf, 0xf3, 0xe7, 0xea, 0x0b,
  0xf4, 0xf0, 0x01, 0xff, 0xe8, 0x00, 0xe5, 0x00, 0xeb, 0xf4, 0x00, 0xf4,
  0x00, 0xf3, 0x00, 0x00, 0x08, 0x81, 0x00, 0xe6, 0xf1, 0x02, 0x00, 0xff,
  0xac, 0x05, 0x00, 0x04, 0xec, 0xe6, 0xf2, 0xee, 0xe5, 0xe9, 0xfe, 0xfc,
  0xfe, 0xf4, 0x06, 0xe7, 0x66, 0xb8, 0xe9, 0x00, 0x09, 0xed, 0x0f, 0xf6,
  0xc5, 0x0a, 0xf2, 0xf8, 0xe9, 0xea, 0x4c, 0x00, 0x00, 0xeb, 0x00, 0xfa,
  0xfe, 0xfb, 0xff, 0x00, 0xfc, 0xfd, 0xfd, 0x00, 0xfa, 0x00, 0xfa, 0x00,
  0xf8, 0xfd, 0x00, 0xfc, 0x00, 0xfd, 0x00, 0x00, 0x02, 0xdc, 0x00, 0xfb,
  0xfb, 0x00, 0x00, 0x01, 0xe5, 0x03, 0x00, 0x03, 0xfa, 0xf9, 0xfc, 0xfd,
  0xfc, 0xfb, 0x02, 0x00, 0x00, 0x01, 0xff, 0xfb, 0x0b, 0x81, 0xfa, 0x00,
  0x01, 0xfa, 0x00, 0xfe, 0xf0, 0x04, 0x03, 0x03, 0xfa, 0xf9, 0xfc, 0x00,
  0xfe, 0x06, 0x00, 0x24, 0x0a, 0x14, 0xee, 0x05, 0x0e, 0x21, 0xfa, 0x00,
  0x0b, 0x00, 0x13, 0x00, 0xef, 0x12, 0x00, 0x00, 0x08, 0x0b, 0x00, 0x00,
  0xf0, 0x3f, 0x00, 0x15, 0x04, 0x12, 0x00, 0x07, 0x7f, 0xfc, 0x00, 0xf5,
  0x11, 0x0d, 0x1a, 0x16, 0x18, 0x13, 0xf9, 0x01, 0xfc, 0xf0, 0x1f, 0x16,
  0xce, 0xd9, 0x25, 0x00, 0xed, 0x10, 0x07, 0x21, 0x1f, 0xfa, 0x01, 0x0c,
  0x0c, 0x0d, 0xbc, 0x00, 0xf5, 0xc7, 0x00, 0xe8, 0xf7, 0xf6, 0xf2, 0xf6,
  0xf2, 0xf2, 0x13, 0x00, 0xea, 0x00, 0xe8, 0x00, 0x16, 0xf3, 0x00, 0x11,
  0x16, 0xf1, 0x00, 0x00, 0xfa, 0x81, 0x00, 0xf4, 0xf7, 0xf1, 0x00, 0x01,
  0xb0, 0x02, 0x00, 0xfb, 0xed, 0xe6, 0xef, 0xea, 0xe6, 0xee, 0xfb, 0xfe,
  0xf7, 0x20, 0x01, 0xfb, 0x1b, 0xa2, 0xeb, 0x00, 0xf8, 0xe4, 0x05, 0xfc,
  0xd7, 0x08, 0xf1, 0x33, 0xec, 0xe5, 0x17, 0x00, 0x04, 0xfc, 0x00, 0xf9,
  0xfb, 0xfa, 0xf9, 0xfe, 0xf9, 0xf7, 0xfe, 0x00, 0xfa, 0x00, 0xf5, 0x00,
  0x00, 0xfa, 0x00, 0x02, 0x02, 0xfb, 0x00, 0x00, 0x01, 0xf1, 0x00, 0xfa,
  0xfd, 0xff, 0x00, 0x02, 0xe8, 0x01, 0x00, 0x03, 0xf8, 0xf8, 0xfb, 0xfc,
  0xf7, 0xf7, 0x02, 0xff, 0x00, 0xfb, 0x03, 0xf8, 0x14, 0x81, 0xf6, 0x00,
  0x00, 0xf9, 0x01, 0xfa, 0xed, 0xfa, 0xfa, 0xf7, 0xf8, 0xf7, 0x0e, 0x00,
  0xfd, 0x0b, 0x00, 0x10, 0x06, 0x0b, 0xf9, 0xf9, 0x0a, 0x0c, 0x10, 0x00,
  0x05, 0x00, 0x0f, 0x00, 0xfe, 0x0a, 0x00, 0xf9, 0xfe, 0x0c, 0x00, 0x00,
  0xfb, 0x1c, 0x00, 0x09, 0x08, 0x06, 0x00, 0x01, 0x2c, 0x07, 0x00, 0xf6,
  0x0f, 0x05, 0x0a, 0x08, 0x0f, 0x07, 0xf6, 0x00, 0xfe, 0xf3, 0x0f, 0x08,
  0xe0, 0x7f, 0x11, 0x00, 0xfb, 0x0f, 0x06, 0x11, 0x0d, 0xf9, 0xff, 0xf0,
  0x08, 0x0a, 0xe0, 0x00, 0xf7, 0x02, 0x00, 0xfe, 0xff, 0x00, 0xfc, 0xe8,
  0x05, 0x05, 0xf6, 0x00, 0x02, 0x00, 0xfd, 0x00, 0x00, 0x06, 0x00, 0xfa,
  0xee, 0xff, 0x00, 0x00, 0xe7, 0xbc, 0x00, 0xff, 0x00, 0xfd, 0x00, 0xf2,
  0xf9, 0xeb, 0x00, 0xee, 0xff, 0xfa, 0x00, 0x02, 0xfd, 0xfd, 0xf2, 0xfd,
  0xec, 0xce, 0xe3, 0x00, 0x0f, 0x81, 0x00, 0x00, 0xe9, 0xff, 0xef, 0x02,
  0xe6, 0x07, 0xee, 0xde, 0xfe, 0xfa, 0x12, 0x00, 0x04, 0xff, 0x00, 0x00,
  0xfe, 0x01, 0xed, 0x01, 0x01, 0xff, 0xfe, 0x00, 0xff, 0x00, 0xff, 0x00,
  0xec, 0x00, 0x00, 0xea, 0xfd, 0x01, 0x00, 0x00, 0x02, 0xfb, 0x00, 0x00,
  0x00, 0x01, 0x00, 0x01, 0xf3, 0x00, 0x00, 0x03, 0x01, 0x00, 0x01, 0x00,
  0x01, 0x02, 0x00, 0x00, 0x00, 0xf9, 0x05, 0x00, 0xfd, 0x81, 0x00, 0x00,
  0x02, 0x02, 0x00, 0xff, 0xf8, 0xeb, 0x01, 0xfd, 0x01, 0xff, 0xeb, 0x00,
  0x03, 0x08, 0x00, 0x1c, 0x0c, 0x0d, 0xfc, 0x00, 0x0e, 0x05, 0x0f, 0x00,
  0x07, 0x00, 0x17, 0x00, 0xfb, 0x0e, 0x00, 0xfb, 0x0b, 0x0d, 0x00, 0x00,
  0xf8, 0x1d, 0x00, 0x0f, 0x10, 0x07, 0x00, 0x0d, 0x1f, 0x02, 0x00, 0xff,
  0x0e, 0x10, 0x11, 0x0c, 0x12, 0x0a, 0x00, 0x00, 0x02, 0xd7, 0x06, 0x09,
  0xda, 0x81, 0x14, 0x00, 0xfb, 0x0e, 0x06, 0x11, 0x19, 0xeb, 0xfc, 0x28,
  0x0b, 0x0a, 0x01, 0x00, 0xeb, 0xe3, 0x00, 0xed, 0xfb, 0xf9, 0x08, 0xf0,
  0xfd, 0xf7, 0x26, 0x00, 0xf3, 0x00, 0xf2, 0x00, 0x14, 0xff, 0x00, 0x05,
  0x0c, 0xf4, 0x00, 0x00, 0xf4, 0xd8, 0x00, 0xf1, 0xfb, 0xed, 0x00, 0xfa,
  0x05, 0xe8, 0x00, 0xf7, 0xf9, 0xef, 0xf4, 0xf6, 0xf2, 0xf5, 0xe5, 0xfd,
  0xec, 0x0d, 0x00, 0xf7, 0xfe, 0x81, 0xf7, 0x00, 0xf4, 0xec, 0xf8, 0xf3,
  0xef, 0x15, 0xeb, 0x3a, 0xec, 0xf4, 0x10, 0x00, 0x11, 0x1c, 0x00, 0x09,
  0x05, 0x04, 0x0d, 0x05, 0x08, 0x06, 0x05, 0x00, 0x07, 0x00, 0x0a, 0x00,
  0x17, 0x09, 0x00, 0x09, 0x0d, 0x07, 0x00, 0x00, 0x03, 0x32, 0x00, 0x0c,
  0x06, 0x16, 0x00, 0x13, 0x1e, 0x05, 0x00, 0x08, 0x03, 0x03, 0x0e, 0x09,
  0x0d, 0x09, 0x0d, 0x02, 0x07, 0x13, 0x08, 0x04, 0xe9, 0x7f, 0x14, 0x00,
  0x0c, 0x06, 0x11, 0x09, 0x23, 0x03, 0x0b, 0x1f, 0x06, 0x06, 0x02, 0x00,
  0xe6, 0x0a, 0x00, 0xff, 0xfd, 0x03, 0x0a, 0xe0, 0x01, 0x00, 0xf2, 0xff,
  0x02, 0x00, 0xff, 0x00, 0xff, 0x02, 0x00, 0x00, 0xe8, 0xfd, 0x00, 0x00,
  0xe2, 0xc4, 0x00, 0xfe, 0x02, 0xf1, 0x00, 0xf4, 0xf6, 0xdb, 0x00, 0xe8,
  0xf9, 0xfe, 0xfa, 0x03, 0x01, 0xfe, 0xdf, 0xfc, 0xe5, 0xe4, 0xe2, 0xff,
  0x0c, 0x81, 0xfd, 0x00, 0xdd, 0xff, 0xda, 0xfd, 0xdc, 0x0b, 0xee, 0xca,
  0xfa, 0xfa, 0x14, 0x00, 0x12, 0xf2, 0x00, 0x03, 0xef, 0xf9, 0x57, 0x0a,
  0xfe, 0x05, 0xf9, 0x00, 0xff, 0x00, 0xff, 0x00, 0x4c, 0xfd, 0x00, 0x25,
  0xff, 0x0c, 0x00, 0x00, 0x13, 0xce, 0x00, 0xff, 0xf2, 0x1e, 0x00, 0x19,
  0x35, 0x01, 0x00, 0x10, 0xf4, 0x00, 0x02, 0xf5, 0x11, 0xfe, 0x29, 0xff,
  0x1e, 0xf1, 0x2b, 0xf3, 0x1d, 0x81, 0x0c, 0x00, 0x25, 0xf8, 0x0e, 0x08,
  0x16, 0x32, 0x07, 0xe6, 0x09, 0xf6, 0x33, 0x00, 0xec, 0x10, 0x00, 0x01,
  0x02, 0x01, 0x05, 0xe2, 0x04, 0x03, 0xe7, 0x00, 0x00, 0x00, 0x04, 0x00,
  0x08, 0x04, 0x00, 0xff, 0x00, 0xff, 0x00, 0x00, 0xe0, 0x0f, 0x01, 0xfe,
  0x01, 0xf4, 0x00, 0xf3, 0x11, 0xe1, 0x00, 0xdd, 0x06, 0xf8, 0xfb, 0xfa,
  0x03, 0xfb, 0xe3, 0xfc, 0xec, 0xd9, 0xcd, 0x04, 0x12, 0x7f, 0x03, 0x00,
  0xd7, 0xff, 0xed, 0x02, 0xff, 0x0d, 0xe4, 0xd1, 0x00, 0xf9, 0x0d, 0x00,
  0xff, 0xdc, 0x00, 0xfd, 0xfc, 0xfb, 0x01, 0xfe, 0x00, 0xfe, 0xfe, 0x00,
  0x01, 0x00, 0xfe, 0x00, 0x02, 0xff, 0x00, 0x06, 0x00, 0x00, 0x00, 0x00,
  0x02, 0xbc, 0x00, 0xfe, 0xfd, 0x01, 0x00, 0xfb, 0xaa, 0xfd, 0x00, 0xfb,
  0xfe, 0xfb, 0xfd, 0x01, 0xfc, 0xff, 0xff, 0x00, 0x03, 0x02, 0xfa, 0xfd,
  0x0e, 0x81, 0xff, 0x00, 0x05, 0x00, 0x02, 0xfd, 0xde, 0x07, 0x09, 0x00,
  0x01, 0xff, 0x07, 0x00, 0x06, 0x0d, 0x00, 0x05, 0x04, 0xff, 0x06, 0x07,
  0x03, 0x04, 0x08, 0x00, 0x01, 0x00, 0x06, 0x00, 0x09, 0x05, 0x00, 0x05,
  0x0a, 0x05, 0x00, 0x00, 0x01, 0x17, 0x00, 0x02, 0x03, 0x0b, 0x00, 0x0b,
  0x21, 0x05, 0x00, 0x06, 0x03, 0x05, 0x04, 0x03, 0x04, 0x02, 0x06, 0x01,
  0x02, 0x09, 0x05, 0x00, 0xf5, 0x7f, 0x05, 0x00, 0x07, 0x03, 0x08, 0x05,
  0x07, 0x05, 0x06, 0x19, 0x02, 0x03, 0x08, 0x00, 0xec, 0x0f, 0x00, 0xfe,
  0xfd, 0x06, 0xff, 0xe6, 0x01, 0xfd, 0xf7, 0x00, 0xfc, 0x00, 0xfc, 0x00,
  0xff, 0x01, 0x00, 0xfd, 0xf7, 0xfd, 0x00, 0x00, 0xe3, 0xdd, 0x00, 0xfc,
  0xfd, 0xf2, 0x00, 0xeb, 0xd3, 0xe6, 0x00, 0xe2, 0x01, 0xf7, 0xfe, 0xfa,
  0xf9, 0xf9, 0xeb, 0xfd, 0xe9, 0xd8, 0xe5, 0xfc, 0x14, 0x81, 0xfb, 0x00,
  0xe2, 0xfe, 0xeb, 0x00, 0xef, 0x07, 0xea, 0xec, 0xfa, 0xfd, 0x38, 0x00,
  0x05, 0x0c, 0x00, 0x04, 0x02, 0x01, 0x07, 0x04, 0x03, 0x03, 0x0b, 0x00,
  0x02, 0x00, 0x05, 0x00, 0x0c, 0x04, 0x00, 0x06, 0x07, 0x03, 0x00, 0x00,
  0x07, 0x12, 0x00, 0x04, 0x03, 0x0b, 0x00, 0x0b, 0x0a, 0x07, 0x00, 0x06,
  0x03, 0x01, 0x04, 0x03, 0x04, 0x03, 0x08, 0x00, 0x05, 0x0a, 0x04, 0x01,
  0xfb, 0x7f, 0x04, 0x00, 0x06, 0x03, 0x08, 0x05, 0x03, 0x07, 0x06, 0x10,
  0x04, 0x04, 0x00, 0x00, 0xfa, 0xfa, 0x00, 0xf7, 0xfc, 0xfa, 0xfe, 0xfc,
  0xf9, 0xf7, 0x0c, 0x00, 0xf9, 0x00, 0xfc, 0x00, 0xff, 0xf9, 0x00, 0xfe,
  0x0d, 0xfb, 0x00, 0x00, 0x03, 0xc6, 0x00, 0xfb, 0xfb, 0x01, 0x00, 0x05,
  0xec, 0x00, 0x00, 0xff, 0xf6, 0xf8, 0xfb, 0xfa, 0xfe, 0xfa, 0xfc, 0xff,
  0xff, 0x01, 0xfe, 0xf9, 0x15, 0x81, 0xf9, 0x00, 0x00, 0xf7, 0x05, 0xfd,
  0xf9, 0x02, 0xfc, 0x0c, 0xf8, 0xf5, 0xfe, 0x00, 0x02, 0x22, 0x00, 0x02,
  0x03, 0xfd, 0x0e, 0xfb, 0xfe, 0xfe, 0xf7, 0x00, 0x00, 0x00, 0xff, 0x00,
  0x16, 0x00, 0x00, 0x05, 0xfe, 0x00, 0x00, 0x00, 0x06, 0x30, 0x00, 0xff,
  0x01, 0x06, 0x00, 0x03, 0x6e, 0xff, 0x00, 0x07, 0xff, 0x01, 0xfe, 0x01,
  0x00, 0x02, 0x09, 0x01, 0x06, 0x00, 0x08, 0xfe, 0xf0, 0x7f, 0x00, 0x00,
  0x02, 0xfe, 0x03, 0x00, 0x1c, 0xfd, 0xff, 0xff, 0xfd, 0x00, 0xe8, 0x00,
  0xfe, 0x0e, 0x00, 0x02, 0x09, 0xfe, 0xc4, 0x06, 0x07, 0x08, 0xb9, 0x00,
  0x04, 0x00, 0x0a, 0x00, 0xb0, 0xff, 0x00, 0xc7, 0xba, 0xfc, 0x00, 0x01,
  0x0c, 0x30, 0xff, 0x04, 0x02, 0x05, 0x00, 0x01, 0x1f, 0x04, 0x00, 0x09,
  0x03, 0x06, 0x01, 0x0c, 0x01, 0x08, 0xfd, 0xff, 0xfd, 0xb9, 0xef, 0x02,
  0x26, 0x96, 0x07, 0x01, 0x09, 0x0a, 0x09, 0xf6, 0x1a, 0xd2, 0x09, 0x81,
  0x01, 0x06, 0xcd, 0x00, 0xff, 0xf9, 0x00, 0xfb, 0xfe, 0xfd, 0x00, 0xfe,
  0xfd, 0xfb, 0x01, 0x00, 0xfc, 0x00, 0xfb, 0x00, 0xfd, 0xfd, 0x00, 0x02,
  0xff, 0xfd, 0x00, 0x00, 0x01, 0xdc, 0x00, 0xfb, 0xfd, 0xfe, 0x00, 0x01,
  0xe7, 0x00, 0x00, 0xfd, 0xfc, 0xfb, 0xfd, 0xfd, 0xfc, 0xfd, 0xfe, 0xff,
  0xff, 0x04, 0xfe, 0xfc, 0x0a, 0x81, 0xfd, 0x00, 0xfe, 0xfc, 0x00, 0xfe,
  0xf7, 0x03, 0xfe, 0x04, 0xfb, 0xf9, 0x01, 0x00, 0x1c, 0x2d, 0x00, 0x0f,
  0x08, 0x08, 0x0b, 0x1e, 0x01, 0x0a, 0x1b, 0x00, 0x06, 0x00, 0x07, 0x00,
  0x1d, 0x0c, 0x00, 0x00, 0x19, 0x07, 0x00, 0x00, 0x14, 0x7f, 0x01, 0x01,
  0x10, 0x34, 0x00, 0x2e, 0x41, 0x25, 0x00, 0x0a, 0x04, 0x00, 0x08, 0x0a,
  0x0e, 0x03, 0x15, 0xff, 0x24, 0x2f, 0x19, 0xff, 0xd2, 0x17, 0x0b, 0x00,
  0x20, 0x05, 0x2d, 0x0d, 0x0d, 0xff, 0x19, 0x5d, 0x07, 0x07, 0x11, 0x00,
  0x08, 0x20, 0x00, 0x1d, 0x0d, 0x13, 0xe5, 0xfd, 0x13, 0x19, 0xee, 0x00,
  0x22, 0x00, 0x22, 0x00, 0xf0, 0x12, 0x00, 0xe8, 0x04, 0x16, 0x00, 0x00,
  0xfe, 0x7f, 0x00, 0x0f, 0x0a, 0x07, 0x00, 0x11, 0x77, 0x09, 0x00, 0xf4,
  0x22, 0x19, 0x1a, 0x13, 0x27, 0x0a, 0xff, 0x00, 0x09, 0xe0, 0x28, 0x1c,
  0xdb, 0x75, 0x2d, 0x00, 0xf7, 0x13, 0x0e, 0x22, 0x19, 0xea, 0x01, 0x21,
  0x0e, 0x12, 0x14, 0x00, 0xfa, 0x00, 0x00, 0x01, 0x04, 0x02, 0xf6, 0xf8,
  0x02, 0x02, 0x03, 0x00, 0x00, 0x00, 0x02, 0x00, 0xf4, 0xfe, 0x00, 0xf7,
  0x06, 0x02, 0x00, 0x00, 0xfb, 0xff, 0x00, 0x00, 0x03, 0xfb, 0x00, 0xfa,
  0x05, 0xf6, 0x00, 0xfb, 0x03, 0x02, 0x04, 0x03, 0x03, 0x00, 0xfa, 0x00,
  0xfb, 0x02, 0xf4, 0x02, 0x08, 0x7f, 0x06, 0x00, 0xf9, 0x00, 0xfa, 0x00,
  0x04, 0xf8, 0xfd, 0x0a, 0x01, 0x03, 0xf8, 0x00, 0xfb, 0xd2, 0x00, 0xe8,
  0xf2, 0xee, 0xfa, 0xfd, 0xee, 0xee, 0x00, 0x00, 0xea, 0x00, 0xe5, 0x00,
  0xeb, 0xe8, 0x00, 0xfc, 0x0a, 0xf7, 0x00, 0x00, 0x0e, 0xa6, 0x00, 0xeb,
  0xf4, 0x01, 0x00, 0x00, 0x81, 0x00, 0x00, 0x03, 0xed, 0xe4, 0xf4, 0xeb,
  0xee, 0xec, 0xfd, 0xff, 0x00, 0xef, 0xfc, 0xee, 0x43, 0xa7, 0xec, 0x00,
  0x05, 0xe5, 0x09, 0xf6, 0xd0, 0xf9, 0xf3, 0xec, 0xeb, 0xea, 0x13, 0x00,
  0xf7, 0x04, 0x00, 0xfe, 0xff, 0x01, 0x02, 0xf7, 0x00, 0xfe, 0xf4, 0x00,
  0xff, 0x00, 0xfe, 0x00, 0x00, 0x02, 0x00, 0xfc, 0xfc, 0x01, 0x00, 0x00,
  0xef, 0xe7, 0x01, 0x01, 0x01, 0xf3, 0x00, 0xfa, 0xfb, 0xf3, 0x00, 0xf7,
  0xff, 0x00, 0x00, 0x02, 0xff, 0xfe, 0xf7, 0xfd, 0xf5, 0xed, 0xe9, 0x02,
  0x0f, 0x7f, 0x01, 0x00, 0xef, 0x00, 0xf5, 0x02, 0xf5, 0x01, 0xf1, 0xe3,
  0x02, 0xfc, 0xff, 0x00, 0xf5, 0xe6, 0x00, 0xf6, 0xff, 0xfa, 0x01, 0xf4,
  0xfb, 0xff, 0x16, 0x00, 0xf8, 0x00, 0xf7, 0x00, 0x0b, 0xfc, 0x00, 0x04,
  0x0b, 0xf6, 0x00, 0x00, 0xf7, 0xca, 0x00, 0xf5, 0xfd, 0xf5, 0x00, 0xfe,
  0xea, 0xfb, 0x00, 0xfe, 0xfb, 0xf9, 0xf5, 0xfa, 0xfb, 0xf8, 0xf6, 0xfe,
  0xf9, 0x06, 0xff, 0xfb, 0xfa, 0x81, 0xf8, 0x00, 0xf6, 0xf4, 0xf5, 0xf4,
  0xeb, 0x07, 0xf7, 0x24, 0xf6, 0xf8, 0xfb, 0x00, 0x00, 0x10, 0x00, 0x0e,
  0x1a, 0x10, 0x0a, 0xfa, 0xfd, 0x12, 0x37, 0x00, 0x06, 0x00, 0x16, 0x00,
  0x0a, 0x10, 0x00, 0x08, 0x33, 0x09, 0x00, 0x00, 0xfd, 0x26, 0x00, 0x0d,
  0x10, 0x00, 0x00, 0x0f, 0x57, 0xf7, 0x00, 0xfe, 0x07, 0x0c, 0x07, 0x0c,
  0x13, 0x07, 0xee, 0xff, 0xf6, 0x11, 0xcf, 0x09, 0xfc, 0xa1, 0x04, 0x00,
  0xf3, 0x03, 0xfd, 0x0b, 0x1f, 0x02, 0xed, 0x7f, 0x0c, 0x08, 0xb8, 0x00,
  0xec, 0xe8, 0x00, 0x06, 0x13, 0x05, 0xec, 0xe3, 0x04, 0x06, 0x39, 0x00,
  0x08, 0x00, 0x07, 0x00, 0xe2, 0x02, 0x00, 0xec, 0x34, 0xfd, 0x00, 0x00,
  0xe9, 0xeb, 0x00, 0x03, 0x0a, 0xee, 0x00, 0xf2, 0xfc, 0xdf, 0x00, 0xec,
  0x0c, 0xff, 0x01, 0x00, 0x0c, 0xfc, 0xed, 0xff, 0xf0, 0x3a, 0xce, 0x00,
  0xfc, 0x7f, 0x09, 0x00, 0xec, 0xf9, 0xef, 0xfd, 0xe1, 0xf2, 0xf9, 0x30,
  0x00, 0x02, 0xaf, 0x00, 0x07, 0x10, 0x00, 0x03, 0x06, 0xff, 0x08, 0x09,
  0x00, 0x03, 0x0e, 0x00, 0x05, 0x00, 0x05, 0x00, 0x08, 0xff, 0x00, 0x08,
  0x09, 0x02, 0x00, 0x00, 0x08, 0x16, 0x00, 0x05, 0x06, 0x18, 0x00, 0x14,
  0x17, 0x0b, 0x00, 0x0b, 0x00, 0x00, 0x01, 0xff, 0x02, 0x00, 0x09, 0x00,
  0x0b, 0x09, 0x0a, 0x02, 0xed, 0x7f, 0x04, 0x00, 0x0e, 0x02, 0x13, 0x04,
  0x13, 0xf5, 0x0c, 0x24, 0xff, 0x04, 0x12, 0x00, 0xfe, 0xef, 0xff, 0xff,
  0x04, 0x00, 0x00, 0x00, 0x00, 0x08, 0x00, 0x00, 0x0a, 0xec, 0xc5, 0x8e,
  0xda, 0xe6, 0x03, 0xe3, 0xba, 0x10, 0xbc, 0x02, 0x32, 0xed, 0xbf, 0x37,
  0xda, 0x9e, 0xc1, 0x0a, 0xd9, 0x88, 0xcf, 0xec, 0xce, 0xec, 0xf0, 0xcd,
  0xe2, 0x34, 0x00, 0xca, 0xb9, 0x98, 0xbc, 0xaf, 0xc5, 0x9e, 0x97, 0xb5,
  0x05, 0xc8, 0xda, 0xfd, 0xd1, 0x1d, 0xba, 0xdd, 0xe5, 0xe3, 0xfe, 0x96,
  0x46, 0x98, 0x81, 0xb6, 0xa2, 0x27, 0xd4, 0xe9, 0xe0, 0x32, 0x09, 0xd5,
  0x15, 0x0e, 0xf4, 0xde, 0xe5, 0x04, 0x0c, 0xfd, 0x81, 0x0c, 0x14, 0x09,
  0x12, 0x24, 0xd6, 0x14, 0xf2, 0xff, 0xe8, 0x03, 0x0d, 0xd5, 0x06, 0xf4,
  0xa0, 0xed, 0xc3, 0x0a, 0xc3, 0xc6, 0xf4, 0xd3, 0xf9, 0xd1, 0xe0, 0xf8,
  0xf4, 0xc4, 0xfb, 0x0f, 0xa2, 0x02, 0x03, 0xf8, 0xfd, 0x0f, 0xfa, 0x13,
  0x07, 0xfd, 0xf4, 0xcf, 0x05, 0xa0, 0xd2, 0xf5, 0xef, 0x11, 0xe2, 0xf4,
  0xfc, 0x32, 0x11, 0xed, 0xf1, 0xea, 0xfa, 0x86, 0xfa, 0x13, 0x34, 0xd2,
  0xbe, 0x12, 0xed, 0xe9, 0x06, 0x03, 0x5d, 0x03, 0xdb, 0xcb, 0xd2, 0xf6,
  0x04, 0x17, 0x0d, 0xf1, 0xa6, 0xc2, 0x00, 0x01, 0x92, 0xa0, 0xd1, 0x14,
  0xe9, 0x0a, 0x23, 0xbf, 0x01, 0x08, 0xba, 0xdd, 0xd1, 0xe9, 0x05, 0xe7,
  0x04, 0x08, 0xff, 0x1c, 0xf3, 0x05, 0xea, 0x01, 0x05, 0x81, 0x09, 0xd6,
  0xbd, 0xee, 0x09, 0x0c, 0x16, 0x18, 0x0e, 0xea, 0x13, 0x00, 0xc4, 0xcf,
  0xe5, 0xd9, 0x04, 0x9b, 0xfb, 0xf3, 0xea, 0xc5, 0xc1, 0x14, 0x10, 0xfb,
  0xe3, 0xa2, 0xde, 0xee, 0xc5, 0xbc, 0xe0, 0xd8, 0xb0, 0xab, 0xc4, 0xde,
  0xe8, 0x76, 0xbc, 0xdb, 0xdc, 0xc5, 0xef, 0xd1, 0xdb, 0xda, 0xc3, 0x87,
  0x8b, 0xd5, 0xde, 0xdf, 0xa2, 0x02, 0x99, 0x14, 0x18, 0xbc, 0xd3, 0xe6,
  0x29, 0x81, 0xb4, 0xe8, 0xa0, 0x44, 0x07, 0xa3, 0xd6, 0x47, 0x2a, 0xc7,
  0x0a, 0x08, 0xf3, 0x18, 0x0e, 0xf1, 0xfc, 0xed, 0x81, 0x05, 0x01, 0xfb,
  0x03, 0x02, 0xdd, 0x0d, 0x11, 0x17, 0xf0, 0x0a, 0xf0, 0x01, 0xf0, 0x00,
  0xec, 0xfc, 0xf4, 0xe8, 0xdb, 0xd5, 0xf5, 0xf3, 0x06, 0x02, 0xe9, 0x17,
  0xf4, 0xf0, 0x18, 0xee, 0xf9, 0x0d, 0xef, 0x10, 0xf8, 0x0d, 0xf4, 0xff,
  0x13, 0xf8, 0x07, 0xf8, 0x02, 0xcf, 0xf1, 0x0e, 0x16, 0x15, 0xf8, 0xf4,
  0xe4, 0x10, 0x08, 0x03, 0x18, 0x35, 0xf1, 0x12, 0x1f, 0x01, 0x44, 0x37,
  0x7f, 0x26, 0x34, 0xe4, 0x2d, 0xda, 0x48, 0x35, 0x2e, 0xd9, 0x52, 0x0f,
  0x05, 0xf6, 0xf2, 0xe0, 0xd8, 0xc0, 0xe8, 0xf4, 0xbd, 0x3a, 0xf5, 0x05,
  0x0e, 0x01, 0x10, 0xe7, 0x0d, 0xfd, 0xe4, 0xe3, 0xb7, 0xd2, 0xf0, 0x08,
  0xdf, 0x31, 0xe2, 0x4c, 0x20, 0xf5, 0x1c, 0xff, 0x20, 0xe1, 0xf9, 0x14,
  0xf7, 0xc3, 0x08, 0xc9, 0x02, 0xb2, 0xe4, 0x12, 0x13, 0x25, 0xef, 0xd3,
  0x17, 0xe8, 0x07, 0x5a, 0x0f, 0x0b, 0x39, 0xcb, 0x16, 0x29, 0xc6, 0x14,
  0x05, 0xb2, 0x4c, 0x2f, 0xe9, 0xb9, 0xc7, 0xe4, 0xe5, 0xbd, 0xa1, 0xda,
  0xa6, 0x7f, 0xc1, 0xbc, 0x48, 0xf7, 0xd1, 0xdf, 0xe9, 0xbc, 0xdf, 0xe1,
  0xe3, 0x0a, 0xcd, 0x19, 0xf3, 0x12, 0xc8, 0x00, 0x29, 0xea, 0x13, 0xbb,
  0x07, 0x51, 0xa8, 0x6a, 0xe1, 0x33, 0xdd, 0xcf, 0xc9, 0x60, 0x1c, 0x6c,
  0x11, 0xfb, 0xf3, 0xea, 0xff, 0xf5, 0x09, 0x13, 0x42, 0x12, 0x00, 0xdb,
  0x02, 0x09, 0x81, 0x27, 0x00, 0x1b, 0x03, 0x0c, 0xe6, 0xd5, 0x02, 0xe7,
  0x04, 0xcd, 0xd7, 0xef, 0x63, 0x4d, 0xc3, 0xd4, 0xf8, 0xb9, 0xe0, 0x09,
  0xc5, 0xc0, 0x0e, 0xd9, 0xec, 0x03, 0xdc, 0x01, 0xed, 0x0a, 0xf4, 0xe0,
  0xf7, 0xea, 0x06, 0xea, 0x1f, 0x25, 0xf6, 0xfe, 0x02, 0x13, 0xd9, 0xe3,
  0xcd, 0x0c, 0x14, 0x00, 0xfa, 0xf1, 0xe8, 0xe0, 0xd9, 0x08, 0xff, 0xca,
  0x54, 0xf2, 0xd9, 0xf5, 0xfa, 0x06, 0xf2, 0x03, 0xd4, 0x0e, 0xc5, 0xf4,
  0xf8, 0x05, 0x0a, 0xe6, 0x7f, 0x16, 0x02, 0x08, 0x6a, 0x23, 0x19, 0xfd,
  0xcb, 0x10, 0x01, 0xe3, 0x11, 0xf6, 0xf4, 0x06, 0x56, 0x02, 0x09, 0xd9,
  0x03, 0xf5, 0xf1, 0x12, 0xda, 0x04, 0xd5, 0x26, 0xf8, 0x52, 0xf3, 0xd8,
  0xe9, 0x06, 0x05, 0xe9, 0x11, 0x0c, 0x05, 0xc8, 0x11, 0xf9, 0x0a, 0xb2,
  0xb4, 0x29, 0x17, 0xed, 0xb9, 0x1e, 0x10, 0xec, 0x31, 0x13, 0x07, 0x34,
  0xaa, 0xc4, 0xe9, 0xc8, 0x23, 0x21, 0x35, 0x10, 0xa7, 0xf5, 0xd5, 0x26,
  0xdb, 0x8b, 0xf2, 0x11, 0xc8, 0x1a, 0x27, 0xd7, 0x3f, 0x21, 0xbd, 0xf4,
  0x81, 0xf7, 0x3d, 0xcc, 0xf1, 0x2b, 0xf4, 0x1d, 0xb5, 0x09, 0xb7, 0x31,
  0x13, 0xdf, 0x1d, 0xab, 0xa8, 0x21, 0x34, 0x10, 0x3e, 0x30, 0x2a, 0xd5,
  0x0d, 0xfe, 0x03, 0xf9, 0xfc, 0xfb, 0x08, 0x04, 0x81, 0x0d, 0x03, 0x02,
  0x0d, 0x0c, 0xc7, 0x18, 0xf9, 0x08, 0xec, 0x03, 0xf9, 0xe0, 0x04, 0x02,
  0xb5, 0xfb, 0xe0, 0xff, 0xc2, 0xc7, 0xf9, 0xd8, 0xfc, 0xdf, 0xe8, 0x06,
  0xf4, 0xcf, 0x07, 0xf6, 0xb9, 0x04, 0x01, 0x06, 0x00, 0x0d, 0x05, 0x04,
  0x01, 0xfb, 0xfe, 0xdc, 0x09, 0xba, 0xdb, 0x07, 0xfa, 0x0c, 0xe2, 0x05,
  0xfc, 0x15, 0x10, 0xf7, 0x12, 0x00, 0xfc, 0x02, 0x08, 0xf6, 0xfb, 0x01,
  0xc4, 0x02, 0x03, 0xee, 0x00, 0x0c, 0x02, 0x09, 0x0e, 0xf6, 0x06, 0x0c,
  0xfd, 0xf3, 0xf9, 0x04, 0x8c, 0xec, 0xf3, 0xf8, 0x81, 0xf2, 0xeb, 0xfc,
  0x05, 0xfa, 0xff, 0x08, 0x05, 0xf7, 0x08, 0xe4, 0x9c, 0x02, 0xfd, 0x07,
  0xee, 0x04, 0xfc, 0x10, 0x10, 0xf3, 0x07, 0xff, 0xfd, 0xaa, 0xfe, 0xfc,
  0x02, 0xff, 0xfd, 0xf0, 0xff, 0x0b, 0x0c, 0xfb, 0x18, 0x18, 0xbb, 0xec,
  0xf7, 0xf8, 0x1a, 0x12, 0x91, 0x15, 0x1f, 0xab, 0x1d, 0xd5, 0x41, 0x1e,
  0xfb, 0xf8, 0x04, 0x0b, 0xf8, 0x25, 0x1d, 0xae, 0x2d, 0x91, 0xaf, 0x05,
  0x05, 0x13, 0xb8, 0x02, 0xd4, 0xff, 0x28, 0xfa, 0x04, 0x19, 0x07, 0x94,
  0x7f, 0xf4, 0x0c, 0x18, 0xa9, 0x24, 0xa9, 0x13, 0xfc, 0xd0, 0xe4, 0x3b,
  0x06, 0x1e, 0x26, 0xeb, 0xf9, 0xe8, 0x1f, 0x97, 0xfe, 0xd6, 0xea, 0xe0,
  0x1f, 0x28, 0xf5, 0x07, 0x24, 0x00, 0x08, 0x4a, 0x3b, 0x19, 0x32, 0xf6,
  0x28, 0xf8, 0x30, 0x12, 0x24, 0xfe, 0x42, 0x2f, 0xfd, 0x14, 0xf2, 0xeb,
  0x7f, 0x01, 0x19, 0xe7, 0x52, 0x3d, 0x1a, 0xfe, 0x36, 0x2e, 0x08, 0x08,
  0x06, 0x1f, 0x02, 0xf8, 0x13, 0x09, 0x11, 0x25, 0xef, 0x30, 0xdf, 0x13,
  0x23, 0x01, 0x1e, 0x1d, 0x17, 0x44, 0x14, 0x40, 0x0e, 0xf5, 0x0c, 0xfc,
  0xfa, 0xef, 0xf0, 0x71, 0x1f, 0x0d, 0xe8, 0xbf, 0xfe, 0x26, 0x53, 0x4e,
  0xd5, 0x44, 0x58, 0xf5, 0x4f, 0xcd, 0xf0, 0x7f, 0xef, 0xe9, 0x50, 0x12,
  0x0c, 0x1f, 0x18, 0xe7, 0xd1, 0xd7, 0xde, 0x13, 0xe2, 0x20, 0xff, 0x42,
  0x04, 0x22, 0x29, 0xf0, 0x20, 0x18, 0xd8, 0xdf, 0x2e, 0xc5, 0x04, 0x03,
  0xd1, 0x61, 0xe0, 0xbe, 0x05, 0xf4, 0x04, 0x4f, 0x57, 0x7b, 0x1e, 0x18,
  0xd7, 0xe6, 0x23, 0xcb, 0x38, 0xbd, 0xfa, 0x1e, 0x07, 0x23, 0xef, 0x47,
  0x34, 0xf1, 0x3f, 0x15, 0xb5, 0x1d, 0x17, 0xe2, 0x28, 0x06, 0x1f, 0x22,
  0x41, 0x1f, 0x23, 0x25, 0xee, 0x47, 0x13, 0xe6, 0x81, 0xde, 0xfc, 0x03,
  0xcc, 0xb6, 0x0b, 0xf3, 0x27, 0x18, 0x2d, 0x25, 0x28, 0x3a, 0x24, 0xeb,
  0xfd, 0x0e, 0x0e, 0x26, 0xee, 0x34, 0xe2, 0x01, 0x36, 0xe7, 0x31, 0x58,
  0x24, 0xe0, 0x2e, 0x4a, 0x01, 0x33, 0x18, 0xe3, 0x0c, 0x2b, 0x1b, 0x48,
  0x1a, 0x24, 0xef, 0x46, 0x2d, 0xdf, 0x00, 0x07, 0x81, 0x16, 0x0f, 0xf4,
  0x1b, 0x11, 0xc4, 0x22, 0x3b, 0x0c, 0x05, 0x2b, 0xe5, 0xf3, 0xdc, 0x0f,
  0xeb, 0xfc, 0xe9, 0xdb, 0x86, 0x01, 0xf0, 0xe6, 0x2a, 0x0f, 0xce, 0x23,
  0xf0, 0xe7, 0x22, 0xed, 0xe4, 0x12, 0xdf, 0x2d, 0xf4, 0x27, 0xf3, 0x0f,
  0x38, 0xec, 0x1e, 0xe4, 0x11, 0x99, 0xdd, 0x40, 0x2e, 0x26, 0xea, 0xf5,
  0xcc, 0x28, 0x11, 0x29, 0x12, 0x27, 0x13, 0xc2, 0xc1, 0x34, 0x30, 0x0f,
  0xf6, 0x18, 0xe5, 0xfb, 0x4e, 0x1c, 0xf9, 0x20, 0xb1, 0xe7, 0xf7, 0xc4,
  0x37, 0xfd, 0x27, 0x0b, 0xb3, 0x09, 0xe1, 0x39, 0x91, 0xac, 0xf6, 0x1e,
  0xb8, 0x1e, 0x08, 0xd6, 0x30, 0x08, 0xc5, 0x35, 0x81, 0x0a, 0x39, 0xc4,
  0x07, 0x40, 0x11, 0x0c, 0xa5, 0x0d, 0xb2, 0xf4, 0x34, 0x07, 0xf7, 0xc3,
  0xc9, 0x33, 0x16, 0x01, 0x28, 0x2e, 0x26, 0xb5, 0xf1, 0xee, 0x04, 0x17,
  0x19, 0xec, 0xca, 0xfc, 0x81, 0xed, 0xf5, 0x07, 0xdc, 0x0e, 0xc2, 0xd2,
  0x07, 0x2a, 0x08, 0x20, 0xe8, 0xf5, 0xf9, 0x0d, 0xc4, 0x0b, 0x0a, 0xeb,
  0x87, 0xf4, 0x09, 0xed, 0x1d, 0xeb, 0xe7, 0x24, 0xf1, 0xdb, 0x1d, 0x17,
  0xc5, 0x20, 0xf8, 0x13, 0xf5, 0xd1, 0x17, 0xd6, 0x18, 0x10, 0x13, 0x04,
  0xd0, 0xca, 0xf5, 0x22, 0x21, 0x08, 0xf4, 0x06, 0xf0, 0x14, 0x13, 0x11,
  0x00, 0x09, 0x15, 0x16, 0xff, 0x13, 0xf7, 0x0c, 0x92, 0x03, 0x18, 0x03,
  0x02, 0x05, 0x0f, 0xf8, 0x03, 0x15, 0x19, 0x04, 0xfe, 0x25, 0x18, 0x0f,
  0xba, 0x0a, 0xef, 0x0c, 0x81, 0x00, 0xe1, 0x18, 0xfe, 0x1a, 0x1d, 0x19,
  0x08, 0x1a, 0x0f, 0x02, 0xc5, 0x0a, 0x07, 0xff, 0x10, 0x10, 0x1b, 0x2c,
  0x01, 0x0a, 0xf5, 0x2e, 0x01, 0x1a, 0x16, 0x0a, 0x04, 0x0f, 0x0a, 0x1a,
  0x00, 0x05, 0x08, 0x0f, 0x01, 0xf7, 0x07, 0xb4, 0x08, 0xfc, 0x0e, 0xf4,
  0xd8, 0x0a, 0xf5, 0xfb, 0x09, 0x08, 0x1c, 0x19, 0x05, 0xc9, 0xf8, 0x02,
  0xec, 0xf9, 0xfb, 0x0d, 0xcc, 0xf6, 0xf7, 0xf4, 0xce, 0xd9, 0xf5, 0xf0,
  0x06, 0xf5, 0x0b, 0xd2, 0xf1, 0xf0, 0xdc, 0xf3, 0xd2, 0xeb, 0xf6, 0x03,
  0xfb, 0x02, 0x01, 0x0b, 0x00, 0xf9, 0x02, 0x00, 0x14, 0x81, 0xf6, 0x08,
  0xce, 0x0b, 0x00, 0x09, 0xf3, 0x1c, 0x05, 0x05, 0x16, 0x02, 0x01, 0x37,
  0x0f, 0xef, 0xef, 0xf7, 0x81, 0xf9, 0xfb, 0xf3, 0x0a, 0x0e, 0xee, 0x0c,
  0x0c, 0x22, 0xf1, 0x02, 0xf0, 0x14, 0xf8, 0x0c, 0x90, 0xfe, 0xdc, 0xf2,
  0x8b, 0xe2, 0xf2, 0x0c, 0xfb, 0x02, 0xfc, 0x1d, 0x03, 0x06, 0x27, 0xfe,
  0xa5, 0x22, 0xfe, 0x0a, 0xe8, 0xfa, 0x0e, 0x1d, 0x08, 0xf1, 0x08, 0x1f,
  0xec, 0xe1, 0x07, 0x02, 0x32, 0x25, 0x03, 0x05, 0xf6, 0x1c, 0x10, 0xfb,
  0xfc, 0xfd, 0x2b, 0x20, 0x0a, 0x19, 0xf8, 0x01, 0x35, 0xf0, 0xf6, 0x1d,
  0xf3, 0xff, 0x0b, 0xfd, 0x1c, 0x17, 0xfc, 0x05, 0x06, 0x1c, 0x0e, 0x1b,
  0x65, 0x39, 0x2b, 0x0a, 0x7f, 0x1f, 0x23, 0x09, 0x02, 0x1c, 0xf9, 0x10,
  0xf6, 0x00, 0x1a, 0x2d, 0x44, 0x0b, 0x04, 0x16, 0x1b, 0xfe, 0x1d, 0xee,
  0x09, 0x26, 0x0c, 0x0b, 0xfb, 0x46, 0x16, 0x04, 0x19, 0x0b, 0x00, 0x17,
  0xfc, 0x00, 0x02, 0xfd, 0x0f, 0xe7, 0x39, 0xc0, 0xe1, 0x40, 0xf2, 0xf1,
  0x86, 0xfb, 0xd7, 0x52, 0x13, 0x07, 0x81, 0x21, 0xdd, 0x15, 0xc9, 0xe8,
  0x24, 0xbc, 0x35, 0x3c, 0xc3, 0x64, 0xff, 0x32, 0x69, 0xe6, 0x65, 0xc7,
  0xc9, 0xcf, 0xcf, 0xe2, 0xfa, 0xc1, 0xd2, 0x6b, 0x5d, 0xf8, 0x23, 0xf5,
  0x44, 0x37, 0x4c, 0xed, 0xd9, 0x48, 0xda, 0xcc, 0x4c, 0xc8, 0xd2, 0xde,
  0xc3, 0x3f, 0xe6, 0x4f, 0x16, 0x64, 0x3a, 0xed, 0xf5, 0x10, 0xd0, 0x0b,
  0xe6, 0xe9, 0x08, 0x01, 0xbb, 0x14, 0x10, 0xb6, 0x26, 0x26, 0xbe, 0x21,
  0xce, 0x25, 0xee, 0xf5, 0xfa, 0x08, 0x02, 0xd9, 0x06, 0x95, 0x81, 0xfd,
  0xd6, 0xf0, 0x9c, 0xf3, 0xd3, 0xf7, 0xfc, 0xfc, 0x20, 0x19, 0xf2, 0x89,
  0x14, 0x02, 0x0e, 0xf6, 0xb8, 0x17, 0xbc, 0xdc, 0xe3, 0xb6, 0xdb, 0x15,
  0x2f, 0xe4, 0x19, 0xc8, 0x20, 0x42, 0x06, 0xaa, 0x0f, 0x26, 0x1f, 0xf1,
  0xf4, 0x0c, 0xc1, 0xbb, 0xfb, 0xdf, 0x09, 0x11, 0x7f, 0x1a, 0x04, 0xd9,
  0xe9, 0xeb, 0x02, 0xf7, 0xe8, 0xce, 0xfb, 0x10, 0xe7, 0xd5, 0xf5, 0xd3,
  0x24, 0xcf, 0xf7, 0xe7, 0x32, 0x38, 0xf8, 0xd4, 0xf4, 0xe6, 0xe5, 0xcf,
  0xef, 0xcd, 0xcb, 0xe5, 0x15, 0xd7, 0xe7, 0x04, 0xe9, 0xfe, 0xd5, 0x0e,
  0x06, 0xf8, 0xee, 0xe6, 0x10, 0xe7, 0xca, 0x04, 0xd0, 0xe3, 0xe3, 0xbe,
  0xe5, 0xe2, 0xec, 0x05, 0x09, 0x00, 0x0c, 0xf9, 0x00, 0x01, 0xf5, 0x07,
  0xad, 0x05, 0x0d, 0x07, 0x09, 0x16, 0xdd, 0x03, 0x02, 0x0b, 0x0e, 0xff,
  0xff, 0xe4, 0x02, 0x09, 0xde, 0x10, 0xf8, 0x04, 0x81, 0xfe, 0x06, 0xeb,
  0x0a, 0xe6, 0xee, 0x02, 0xf4, 0xde, 0x0b, 0x0f, 0x9d, 0x0f, 0xff, 0x03,
  0x0b, 0x05, 0x18, 0xfb, 0xf9, 0x0c, 0xff, 0xe7, 0xfd, 0xd4, 0xe3, 0x09,
  0xfe, 0xfe, 0xf3, 0x12, 0xf7, 0x15, 0x09, 0x09, 0xfa, 0x05, 0x1c, 0x54,
  0x1f, 0x14, 0xef, 0xfd, 0x22, 0xf5, 0x04, 0x20, 0xff, 0x0f, 0xe6, 0xf2,
  0x24, 0x33, 0xf7, 0x09, 0x07, 0xf5, 0xf2, 0x26, 0x7f, 0x17, 0x1a, 0x11,
  0x4d, 0xf3, 0x19, 0xff, 0x04, 0xfd, 0xf6, 0x3f, 0xff, 0xf2, 0x29, 0x0f,
  0x74, 0x1f, 0xfa, 0x1a, 0x0b, 0x09, 0x07, 0xd3, 0x19, 0x10, 0x10, 0xff,
  0xf0, 0x29, 0xfa, 0x13, 0x36, 0x1f, 0x00, 0x30, 0xff, 0x13, 0x12, 0x00,
  0x11, 0x08, 0x06, 0x17, 0x09, 0x22, 0x07, 0x0f, 0xca, 0xfa, 0x17, 0xf4,
  0x10, 0x11, 0x0d, 0x0e, 0xfd, 0x31, 0x1e, 0xff, 0x16, 0x37, 0x2d, 0x05,
  0x12, 0x0c, 0xf0, 0x11, 0x81, 0xf4, 0xe5, 0x20, 0x04, 0x32, 0x26, 0x14,
  0x14, 0x0d, 0x1a, 0x29, 0xec, 0x07, 0x08, 0xfe, 0x09, 0x14, 0x0a, 0x24,
  0xfa, 0x06, 0x03, 0x63, 0x05, 0x17, 0x27, 0x04, 0x02, 0x2b, 0x1d, 0xf3,
  0x01, 0x13, 0x1e, 0x12, 0x1d, 0x13, 0x2f, 0x02, 0xf2, 0x2e, 0xfc, 0x18,
  0xad, 0x05, 0x1c, 0x10, 0x27, 0x04, 0x16, 0x20, 0xf4, 0x31, 0x19, 0xfe,
  0x07, 0x46, 0x38, 0x24, 0xf4, 0x18, 0xd7, 0x18, 0xb6, 0xe5, 0xe9, 0x25,
  0xfa, 0x4b, 0x2f, 0x00, 0x1a, 0x2f, 0x07, 0x2d, 0x9f, 0x20, 0x17, 0xe8,
  0x1e, 0x24, 0x23, 0x50, 0xf2, 0x0e, 0xfd, 0x7f, 0x17, 0xe0, 0x3e, 0x01,
  0x0b, 0x3b, 0x1b, 0x04, 0x0b, 0x27, 0x1e, 0x10, 0xfa, 0xf2, 0xf8, 0xf9,
  0xff, 0xf5, 0xf5, 0xdb, 0x01, 0xfa, 0xe3, 0xf7, 0xf5, 0x01, 0xe4, 0xff,
  0x06, 0xe7, 0xe7, 0x05, 0x09, 0xe5, 0x00, 0xfc, 0x63, 0xf4, 0x0d, 0x0b,
  0x63, 0xf4, 0x1a, 0xe8, 0xfb, 0xdc, 0xea, 0xe1, 0xfc, 0xe7, 0xe6, 0x0d,
  0x7f, 0xe8, 0x05, 0x00, 0xfa, 0xfa, 0xf6, 0xaf, 0x04, 0x01, 0xfb, 0xe4,
  0xee, 0x13, 0xe9, 0xf9, 0xe2, 0x0d, 0xf4, 0x04, 0x11, 0x13, 0x0f, 0xf7,
  0xfe, 0xf5, 0xef, 0x01, 0x04, 0xde, 0xea, 0xda, 0x40, 0xfb, 0xe0, 0xfc,
  0xf2, 0x04, 0xe4, 0xf1, 0x0d, 0x13, 0xe0, 0x0a, 0xf1, 0xec, 0xf5, 0xec,
  0x5d, 0x01, 0x15, 0xfc, 0x7f, 0x17, 0x19, 0xe7, 0x02, 0xd0, 0xe1, 0xee,
  0xe9, 0xf2, 0xef, 0xf1, 0x65, 0x0a, 0xfe, 0x05, 0xef, 0xf7, 0xeb, 0xb7,
  0x04, 0xfe, 0x05, 0xcd, 0xea, 0x22, 0xdb, 0x08, 0xfe, 0x06, 0xf1, 0xf6,
  0xfd, 0xfa, 0xff, 0xf7, 0x0a, 0xf8, 0xff, 0xff, 0x04, 0x00, 0x00, 0x00,
  0x14, 0x00, 0x00, 0x00, 0x17, 0x88, 0x26, 0x40, 0x0a, 0x11, 0x68, 0xbf,
  0xd9, 0xfb, 0xb4, 0xbe, 0x0b, 0xcf, 0x02, 0xc0, 0xe3, 0x0f, 0x98, 0x3f,
  0x2a, 0xf8, 0xff, 0xff, 0x04, 0x00, 0x00, 0x00, 0x80, 0x02, 0x00, 0x00,
  0x7e, 0x9e, 0x26, 0x3f, 0x24, 0x3b, 0x31, 0xbd, 0xc8, 0xad, 0x4a, 0x3f,
  0x54, 0xe9, 0xf4, 0x3e, 0xb8, 0x73, 0x19, 0xbf, 0x5e, 0xfe, 0x56, 0xbf,
  0x49, 0x2f, 0x15, 0x3d, 0x00, 0x50, 0xa9, 0x3f, 0x0e, 0xc6, 0x0c, 0x3f,
  0x5a, 0x74, 0x21, 0xbe, 0x08, 0xb9, 0x34, 0x3e, 0x6d, 0x42, 0x2f, 0xbf,
  0xfb, 0x94, 0xaf, 0x3e, 0xc1, 0xf4, 0xc5, 0xbe, 0xb4, 0x11, 0x71, 0x3e,
  0x2a, 0xad, 0x31, 0xbf, 0x86, 0xe2, 0x24, 0xbd, 0xf5, 0xef, 0x15, 0xbf,
  0xef, 0xc2, 0xa1, 0xbe, 0x0d, 0x72, 0x22, 0xbf, 0x79, 0x2a, 0x00, 0x3e,
  0xf8, 0x2f, 0x84, 0xbf, 0x4c, 0xf1, 0x86, 0xbd, 0x03, 0x48, 0x8c, 0xbe,
  0x91, 0x39, 0xdc, 0x3e, 0x34, 0x7f, 0x14, 0xbf, 0xef, 0xd0, 0xf5, 0xbe,
  0xba, 0x19, 0xa5, 0xbd, 0x9e, 0xf5, 0x93, 0xbe, 0x68, 0x1f, 0x91, 0xbe,
  0xac, 0x91, 0xf6, 0x3e, 0x48, 0x12, 0x0e, 0xbe, 0xb9, 0x45, 0xd7, 0xbe,
  0x06, 0x08, 0x57, 0xbe, 0x3a, 0xf4, 0xe5, 0xbf, 0xe8, 0x01, 0xd5, 0xbe,
  0x26, 0x3d, 0xa7, 0x3f, 0xa6, 0x0a, 0x28, 0xbf, 0x15, 0xa4, 0xad, 0x3f,
  0x69, 0x4e, 0x28, 0x3f, 0xb8, 0xa0, 0xce, 0xbe, 0x42, 0xb0, 0x23, 0xbf,
  0x4c, 0xa0, 0x93, 0xbe, 0xbe, 0x75, 0x20, 0xbf, 0xce, 0xc3, 0xc8, 0xbe,
  0xb0, 0x6f, 0x0e, 0x3f, 0xb3, 0x4e, 0x91, 0xbe, 0x56, 0x77, 0x2a, 0xbf,
  0x5f, 0xc7, 0x7e, 0x3f, 0x4d, 0xe7, 0x30, 0xbf, 0x0a, 0xba, 0x1d, 0xbe,
  0xe1, 0x30, 0x36, 0x3f, 0x52, 0x67, 0x0b, 0xc0, 0xf6, 0xe3, 0x48, 0xbf,
  0x50, 0xc8, 0x83, 0x3e, 0x23, 0x49, 0xb8, 0xbe, 0xf9, 0xfe, 0x17, 0xbe,
  0x96, 0xcd, 0x9a, 0x3f, 0x0d, 0x29, 0x27, 0x3f, 0x5f, 0xae, 0x47, 0x3f,
  0x17, 0xb4, 0x07, 0x3f, 0xc3, 0x26, 0x1c, 0x3d, 0x72, 0x67, 0xab, 0xbe,
  0x5c, 0xd6, 0xde, 0xbe, 0x43, 0x62, 0xee, 0xbe, 0x39, 0xd9, 0x75, 0xbf,
  0x76, 0x5a, 0x53, 0x3f, 0x89, 0x7d, 0x90, 0xbe, 0x6a, 0xa4, 0x3d, 0xbf,
  0x52, 0x10, 0x5f, 0xbd, 0xef, 0xf9, 0x5e, 0xbf, 0x15, 0x47, 0x83, 0xbf,
  0x91, 0x9d, 0xc0, 0x3e, 0xb2, 0xb7, 0x17, 0x3f, 0xcd, 0x69, 0x05, 0xbf,
  0x6d, 0xeb, 0x2b, 0xbe, 0x47, 0x1b, 0xcd, 0xbe, 0x86, 0x9b, 0x0a, 0x3f,
  0xa1, 0xe4, 0x36, 0x3d, 0xaa, 0xcd, 0x21, 0xbe, 0xaf, 0x83, 0x7c, 0xbd,
  0x1a, 0xca, 0xf6, 0x3e, 0xc6, 0x64, 0x5d, 0x3f, 0xda, 0xfc, 0x0c, 0x3f,
  0x30, 0x67, 0xea, 0x3d, 0xf7, 0x81, 0x8a, 0x3e, 0x2f, 0xd9, 0x26, 0x3e,
  0xe4, 0x91, 0x15, 0x3f, 0x7c, 0x53, 0xd6, 0xbf, 0x5e, 0xd5, 0x0f, 0xbe,
  0xf1, 0x8b, 0x00, 0xbf, 0x6b, 0xc2, 0xd0, 0x3e, 0x15, 0xf5, 0x03, 0x3f,
  0x91, 0x9c, 0xd9, 0x3e, 0xa1, 0xbc, 0x3b, 0x3f, 0x6a, 0x01, 0x04, 0xbe,
  0x1d, 0xe8, 0x52, 0x3e, 0x95, 0x38, 0xf8, 0x3e, 0xed, 0xbc, 0xa5, 0x3f,
  0xc8, 0x42, 0xaa, 0x3f, 0x27, 0x3a, 0x16, 0xbf, 0x68, 0x39, 0x85, 0x3f,
  0x87, 0x5d, 0x3c, 0x3f, 0x66, 0xa8, 0x6b, 0xbe, 0x98, 0x57, 0x5c, 0xbf,
  0xca, 0xad, 0x5e, 0x3f, 0xcf, 0xa2, 0x10, 0x3f, 0x1b, 0x16, 0x83, 0x3f,
  0x52, 0xc7, 0x75, 0x3f, 0x6b, 0xc7, 0x2a, 0xbe, 0x93, 0x0c, 0xa5, 0x3f,
  0x24, 0x38, 0xcd, 0x3e, 0xd8, 0xb9, 0xde, 0x3c, 0xb1, 0x2e, 0xa2, 0x3d,
  0xca, 0x1d, 0x8a, 0xbf, 0x6d, 0xa5, 0x7d, 0xbe, 0x9f, 0x23, 0xb1, 0x3f,
  0x19, 0x3c, 0x17, 0x3e, 0x39, 0x20, 0x20, 0xbf, 0x8c, 0x1e, 0xf1, 0xbe,
  0x55, 0x76, 0x78, 0x3f, 0xd8, 0x64, 0x78, 0x3f, 0x8e, 0xcc, 0x70, 0x3f,
  0xec, 0x3d, 0x30, 0xbf, 0x8a, 0xfe, 0xe0, 0x3e, 0x19, 0xc6, 0x5b, 0xbe,
  0x56, 0x69, 0x31, 0xc0, 0x4a, 0x56, 0xbb, 0xbf, 0x68, 0x39, 0x94, 0xbc,
  0xc5, 0xe4, 0xb0, 0x3f, 0x73, 0xcc, 0x53, 0x3f, 0x6c, 0x9d, 0x29, 0xbf,
  0x48, 0xbd, 0x1d, 0x3e, 0xa3, 0xe8, 0x31, 0xbf, 0x0a, 0xa2, 0x60, 0xbf,
  0x8a, 0x44, 0x88, 0xbf, 0xf3, 0x61, 0xef, 0x3d, 0xa0, 0x96, 0x82, 0x3e,
  0x60, 0xbb, 0xd0, 0x3f, 0xb8, 0xef, 0xfe, 0x3e, 0xef, 0xf0, 0x8e, 0xbf,
  0x02, 0x3f, 0x07, 0xbf, 0xe9, 0x5c, 0x8b, 0xbf, 0xc7, 0x3e, 0x2d, 0x3e,
  0x27, 0x58, 0xf5, 0x3d, 0xd7, 0xf3, 0x10, 0x3c, 0x75, 0xc6, 0xae, 0x3f,
  0x61, 0xfb, 0x3c, 0xbf, 0x77, 0x3d, 0x54, 0xbd, 0xda, 0x54, 0x4f, 0x3f,
  0xe9, 0xd1, 0x28, 0xbb, 0xf1, 0x24, 0x8f, 0xbe, 0x67, 0xeb, 0x1c, 0xbe,
  0x6c, 0x98, 0xa4, 0xbf, 0xb9, 0xe9, 0xa1, 0x3f, 0x68, 0x9a, 0x36, 0x3e,
  0xb2, 0x54, 0x24, 0xbe, 0x54, 0x08, 0x3a, 0xbf, 0x3f, 0xe0, 0x8a, 0x3f,
  0x54, 0x53, 0x02, 0xbd, 0xb6, 0xfa, 0xff, 0xff, 0x04, 0x00, 0x00, 0x00,
  0x80, 0x00, 0x00, 0x00, 0xbe, 0x5d, 0x29, 0x40, 0xbb, 0xbe, 0x99, 0x3f,
  0x05, 0x64, 0x11, 0x3f, 0x9b, 0x7c, 0xfa, 0x3f, 0x31, 0x55, 0x86, 0x3f,
  0xa3, 0xcf, 0x33, 0x3e, 0xd6, 0x3b, 0xe5, 0x3e, 0x7b, 0x84, 0x69, 0x3f,
  0xdd, 0xaa, 0x14, 0x3f, 0x18, 0xa8, 0x38, 0x3f, 0xdb, 0xbd, 0x89, 0x3f,
  0xf4, 0x2d, 0x98, 0x3f, 0x68, 0x81, 0xbe, 0x3e, 0xa4, 0xf1, 0x97, 0xbf,
  0xd8, 0xdc, 0x13, 0xbf, 0x1f, 0x8f, 0x3e, 0xbf, 0x9f, 0x61, 0xc5, 0x3e,
  0x1f, 0x68, 0x40, 0x3f, 0x4e, 0xb7, 0xe7, 0x3e, 0xb0, 0xe1, 0x69, 0xbf,
  0xb1, 0x3f, 0x63, 0x3f, 0xa8, 0xc4, 0x30, 0x3f, 0xcc, 0x3b, 0x48, 0xbf,
  0xc9, 0x2b, 0x8f, 0x3e, 0x04, 0x86, 0x88, 0x3f, 0x0a, 0x18, 0xbf, 0x3f,
  0xe8, 0xac, 0x24, 0x3f, 0x52, 0xea, 0x58, 0xbf, 0x1e, 0x44, 0x89, 0xbf,
  0x92, 0x3a, 0xa0, 0xbf, 0x20, 0x23, 0x4c, 0x3f, 0x2e, 0x02, 0x52, 0x3f,
  0x42, 0xfb, 0xff, 0xff, 0x04, 0x00, 0x00, 0x00, 0x00, 0x01, 0x00, 0x00,
  0x66, 0xaa, 0x87, 0xbf, 0xa7, 0xad, 0xd7, 0xbf, 0x26, 0xa5, 0x1e, 0x40,
  0xbb, 0x6f, 0x43, 0xc0, 0x12, 0x0f, 0x4f, 0xc0, 0x5d, 0x49, 0x43, 0x40,
  0x2d, 0xa4, 0x5e, 0x3e, 0x19, 0x12, 0x0e, 0xc0, 0x15, 0x1e, 0x61, 0x3f,
  0x48, 0x36, 0xb0, 0xbe, 0x8c, 0x1e, 0x0d, 0xc0, 0x5a, 0x4d, 0x26, 0x40,
  0x08, 0x48, 0x17, 0xbf, 0x44, 0x7d, 0x23, 0xbf, 0x16, 0xe2, 0xae, 0x3f,
  0x6f, 0x19, 0x9b, 0xbe, 0x7e, 0x8a, 0x50, 0xc0, 0x1b, 0x5b, 0x0c, 0xc0,
  0x7f, 0x8c, 0x22, 0xc0, 0xe9, 0x81, 0x37, 0xc0, 0x58, 0xb5, 0x4f, 0x40,
  0xf1, 0xdc, 0x59, 0x40, 0x30, 0x6c, 0x3c, 0x40, 0x31, 0x5f, 0x0c, 0x40,
  0xf3, 0x72, 0xb5, 0x3f, 0xe6, 0x42, 0x0f, 0x40, 0xa5, 0x18, 0x09, 0x40,
  0xd2, 0x17, 0x50, 0x40, 0xc7, 0x26, 0x07, 0x3f, 0xac, 0xd4, 0x9b, 0xbf,
  0xba, 0x1f, 0x20, 0x40, 0x1a, 0x15, 0x44, 0x40, 0xbb, 0x9d, 0x55, 0xc0,
  0xfb, 0x23, 0x5b, 0x40, 0x7b, 0xad, 0x36, 0x40, 0xca, 0x75, 0x36, 0xc0,
  0x82, 0x91, 0x46, 0x40, 0xa0, 0x1a, 0x70, 0x40, 0x7f, 0xd0, 0x2e, 0xc0,
  0xc5, 0x9d, 0x10, 0x40, 0xed, 0x6d, 0xdd, 0xbe, 0x21, 0xa8, 0x11, 0xc0,
  0x5f, 0xb1, 0x45, 0x40, 0xb9, 0xb8, 0x35, 0xc0, 0x05, 0x68, 0x33, 0x40,
  0x2c, 0xa1, 0x73, 0xbf, 0xea, 0x03, 0x17, 0x40, 0x18, 0x0b, 0x8a, 0x3f,
  0x2e, 0x9d, 0x4b, 0xc0, 0xe0, 0x19, 0x36, 0x40, 0xc0, 0x8f, 0x53, 0xc0,
  0xa1, 0x67, 0x38, 0x40, 0x0b, 0x86, 0x1c, 0xbf, 0x78, 0x9d, 0x37, 0xbf,
  0x9d, 0x09, 0x58, 0x40, 0xab, 0x05, 0x63, 0xc0, 0xd5, 0xbe, 0x3e, 0xc0,
  0x2d, 0xa8, 0x01, 0x3f, 0x8c, 0xfb, 0x38, 0x40, 0x64, 0xd1, 0x12, 0x40,
  0xdc, 0x9d, 0x58, 0x40, 0x5f, 0xe5, 0xb4, 0xbf, 0x7b, 0x88, 0x1f, 0x3f,
  0x0a, 0x55, 0x44, 0xc0, 0x4e, 0xfc, 0xff, 0xff, 0x04, 0x00, 0x00, 0x00,
  0x00, 0x01, 0x00, 0x00, 0x18, 0xad, 0x29, 0xbc, 0xc6, 0x63, 0xac, 0xbd,
  0x31, 0x86, 0x68, 0xbd, 0xab, 0xc0, 0x4b, 0xb9, 0x3a, 0xe2, 0x25, 0xbf,
  0x86, 0xfb, 0x80, 0x39, 0xfc, 0x99, 0x9c, 0x3c, 0xb8, 0xfb, 0xb9, 0xbc,
  0x18, 0xc0, 0x43, 0xbd, 0xe2, 0x63, 0x1d, 0xbe, 0x4b, 0x5f, 0x94, 0x3d,
  0xc1, 0xc6, 0xd3, 0xb9, 0xcf, 0x0f, 0x19, 0x3a, 0xb5, 0xa7, 0x96, 0xbc,
  0xf1, 0xe5, 0xa8, 0xb9, 0x3a, 0xeb, 0xd9, 0xbc, 0x29, 0x3b, 0xbd, 0xbd,
  0x94, 0xed, 0x8d, 0xb9, 0xa6, 0xd3, 0xc3, 0xbc, 0x06, 0x5d, 0x04, 0xbd,
  0x99, 0xc6, 0xa1, 0x3c, 0x48, 0x48, 0x3a, 0x39, 0x99, 0xa2, 0xeb, 0xba,
  0xdc, 0x6c, 0xa2, 0xbc, 0xd8, 0x0c, 0xd3, 0x39, 0x0a, 0x86, 0x2c, 0x3d,
  0x8d, 0xed, 0x43, 0xbc, 0x4c, 0xe3, 0x46, 0xbe, 0x5f, 0x72, 0x1c, 0xbf,
  0xd2, 0xa3, 0xd2, 0xb9, 0x7b, 0x39, 0x02, 0xb7, 0xe3, 0x64, 0x4d, 0xba,
  0x54, 0xa6, 0xbf, 0x3b, 0x34, 0x12, 0xb5, 0x3d, 0x55, 0xee, 0x4b, 0xbc,
  0x0d, 0xc0, 0xd3, 0x39, 0x31, 0x09, 0x49, 0xb8, 0xc3, 0x40, 0x8d, 0xbe,
  0xe2, 0xc0, 0x9c, 0xb9, 0x12, 0x9e, 0xa1, 0xba, 0x1e, 0xef, 0x6c, 0xbd,
  0xa2, 0xdb, 0x1f, 0x3a, 0xd1, 0x79, 0x7f, 0x39, 0x60, 0xca, 0x2c, 0xbd,
  0xd5, 0xf0, 0xe6, 0x3c, 0x0d, 0x53, 0x44, 0x3d, 0x27, 0x1f, 0x15, 0xbf,
  0x93, 0x33, 0x3c, 0xbd, 0x89, 0x1b, 0xe4, 0xbc, 0x19, 0x22, 0x1f, 0xbc,
  0x95, 0x60, 0x41, 0xbe, 0x56, 0x7c, 0x5c, 0xbb, 0xe9, 0xab, 0xd6, 0xba,
  0x14, 0xa0, 0xae, 0xb9, 0x2a, 0x53, 0xd6, 0x38, 0x82, 0x04, 0xa6, 0xba,
  0x92, 0x14, 0x4b, 0x3c, 0x77, 0x3d, 0xc0, 0xbd, 0x42, 0x24, 0x1f, 0xbe,
  0xf8, 0xd3, 0xea, 0x3c, 0xf3, 0xc5, 0xf8, 0x38, 0x66, 0x24, 0xc9, 0x3a,
  0x2e, 0xd9, 0xf7, 0xbc, 0xe9, 0x25, 0x5a, 0xbd, 0x5a, 0xfd, 0xff, 0xff,
  0x04, 0x00, 0x00, 0x00, 0x00, 0x02, 0x00, 0x00, 0x1a, 0x44, 0x37, 0x3e,
  0x9f, 0x0a, 0x53, 0x3c, 0x5b, 0xeb, 0x1b, 0x3e, 0x54, 0x2f, 0x3c, 0xbe,
  0x4d, 0x15, 0x33, 0x2f, 0x42, 0x4e, 0x10, 0xb8, 0x44, 0x75, 0x83, 0x3d,
  0x9b, 0xe3, 0xc6, 0x3d, 0x26, 0xb7, 0x7a, 0xbd, 0xd9, 0x12, 0xdf, 0x3d,
  0xf3, 0x0a, 0x50, 0x3d, 0x93, 0x44, 0xe5, 0x3d, 0xbf, 0x86, 0x57, 0x3e,
  0xdf, 0x73, 0x0f, 0xbe, 0x4b, 0x99, 0x31, 0x3e, 0x76, 0xbc, 0xcb, 0x3c,
  0x23, 0x32, 0x39, 0x3d, 0xb8, 0x4d, 0xd1, 0x3d, 0xee, 0x61, 0x91, 0x3d,
  0x59, 0xec, 0x94, 0x3d, 0x6c, 0xbf, 0x8c, 0xbe, 0x3d, 0xf5, 0xbb, 0x3d,
  0x89, 0xce, 0x0c, 0x88, 0x4e, 0xb7, 0x87, 0xa5, 0x67, 0xa6, 0x5a, 0x3d,
  0xcc, 0x49, 0xd9, 0x3d, 0xd2, 0x37, 0x91, 0x88, 0x10, 0x1d, 0x49, 0x89,
  0xa5, 0xe2, 0x8e, 0x3d, 0xa1, 0x68, 0xa4, 0x3d, 0xaa, 0x14, 0x7d, 0x88,
  0x92, 0xeb, 0x8d, 0x09, 0x95, 0x57, 0x0c, 0x3e, 0x77, 0xd3, 0xd0, 0xbd,
  0xd7, 0xa2, 0xaf, 0x3d, 0x77, 0xda, 0xe3, 0x3d, 0xba, 0x7b, 0xb9, 0xb2,
  0xa2, 0xce, 0x9c, 0xb3, 0xe9, 0x27, 0xa0, 0x3e, 0x0f, 0xf4, 0x48, 0xbe,
  0x58, 0x1b, 0x87, 0xbe, 0x73, 0x82, 0xb5, 0x3d, 0x0c, 0x87, 0xba, 0x3d,
  0xf3, 0x45, 0xde, 0x3d, 0xa0, 0x53, 0xf1, 0x87, 0xdb, 0x31, 0x7a, 0x89,
  0x4f, 0x83, 0x92, 0x09, 0x2c, 0xd8, 0x4c, 0x09, 0xa3, 0x39, 0x3e, 0x3e,
  0x8b, 0xcc, 0x5d, 0x3c, 0x94, 0x44, 0xc4, 0x3d, 0x11, 0x46, 0x19, 0xbe,
  0xd3, 0x70, 0x5a, 0xb6, 0x54, 0xa5, 0xa5, 0xb5, 0xa6, 0x8d, 0x5e, 0x3d,
  0x28, 0xcd, 0xdc, 0x3d, 0xf4, 0x8c, 0x90, 0xbd, 0xb0, 0x39, 0xc7, 0x3d,
  0x3e, 0xdf, 0x2a, 0x3e, 0x44, 0x27, 0xa9, 0x3c, 0xcb, 0x03, 0x39, 0x89,
  0xae, 0xc9, 0x43, 0x89, 0x1e, 0xc2, 0x28, 0x3e, 0xc6, 0x27, 0x85, 0x3c,
  0x93, 0xc1, 0xe7, 0x3d, 0x6e, 0xc9, 0x28, 0xbe, 0xae, 0xd1, 0x34, 0x3e,
  0x81, 0x91, 0xa2, 0x3c, 0x3c, 0xce, 0xc9, 0x09, 0x70, 0xe9, 0x84, 0x89,
  0x88, 0xd3, 0x2e, 0x3e, 0x7e, 0xdb, 0x9d, 0x3c, 0x5e, 0xda, 0x54, 0x3d,
  0x55, 0x30, 0xe6, 0x3d, 0x97, 0x82, 0x5b, 0x3d, 0xc5, 0xa3, 0xc7, 0x3d,
  0x9b, 0x9d, 0x83, 0x3d, 0xe3, 0xee, 0xca, 0x3d, 0xef, 0x21, 0x4a, 0x3d,
  0x6f, 0x98, 0xdd, 0x3d, 0x54, 0xab, 0x9c, 0x3d, 0x14, 0x97, 0xb9, 0x3d,
  0x87, 0x2f, 0x6f, 0x3d, 0xe8, 0xb3, 0xbe, 0x3d, 0x15, 0x45, 0x43, 0x3e,
  0xf4, 0x6c, 0x13, 0x3c, 0xe9, 0x2a, 0x43, 0xb1, 0x7b, 0x16, 0x84, 0xb7,
  0x57, 0xfa, 0x24, 0x3e, 0xe4, 0xc7, 0x43, 0x3c, 0x6b, 0xe1, 0x5d, 0xbe,
  0x11, 0xfb, 0x8f, 0x3d, 0x31, 0x24, 0x2f, 0x3e, 0x06, 0x1f, 0xf6, 0xbc,
  0x19, 0x02, 0x6e, 0x3d, 0xfb, 0xea, 0xc7, 0x3d, 0x08, 0xfc, 0xb3, 0x88,
  0xac, 0x77, 0xaa, 0x09, 0xde, 0x61, 0x27, 0x3d, 0xe1, 0x0d, 0x55, 0xbe,
  0xa7, 0xa3, 0x33, 0x3d, 0x04, 0xf2, 0xd4, 0x3d, 0x9f, 0xcb, 0x6a, 0xa5,
  0xb6, 0x03, 0x10, 0xb1, 0x4a, 0x63, 0x46, 0x3e, 0x40, 0xdc, 0xa8, 0x3c,
  0xd0, 0x2f, 0x80, 0x3d, 0x1f, 0x78, 0xd4, 0x3d, 0x45, 0x78, 0x31, 0x3e,
  0xb7, 0x43, 0x4d, 0x3c, 0x1f, 0x00, 0x81, 0x3d, 0xfd, 0x0f, 0xc5, 0x3d,
  0x92, 0x9f, 0x21, 0x3e, 0x0f, 0x3d, 0x43, 0xbe, 0x2b, 0x2e, 0x92, 0x3e,
  0x9b, 0x8d, 0x47, 0xbe, 0x65, 0x65, 0x37, 0x3e, 0x20, 0xaf, 0x1d, 0xbc,
  0x6e, 0x17, 0x84, 0xbe, 0x50, 0x2c, 0x85, 0x3d, 0x27, 0x2d, 0xc0, 0x3d,
  0x32, 0x6f, 0xd5, 0x3d, 0xde, 0xee, 0x8a, 0x3d, 0x7a, 0x21, 0xae, 0x3d,
  0x00, 0x31, 0xf3, 0x3a, 0x2b, 0xc4, 0x92, 0xbc, 0x58, 0x01, 0x35, 0x89,
  0x09, 0x0b, 0x10, 0xa3, 0x48, 0xf3, 0xff, 0xff, 0x4c, 0xf3, 0xff, 0xff,
  0x0f, 0x00, 0x00, 0x00, 0x4d, 0x4c, 0x49, 0x52, 0x20, 0x43, 0x6f, 0x6e,
  0x76, 0x65, 0x72, 0x74, 0x65, 0x64, 0x2e, 0x00, 0x01, 0x00, 0x00, 0x00,
  0x14, 0x00, 0x00, 0x00, 0x00, 0x00, 0x0e, 0x00, 0x18, 0x00, 0x14, 0x00,
  0x10, 0x00, 0x0c, 0x00, 0x08, 0x00, 0x04, 0x00, 0x0e, 0x00, 0x00, 0x00,
  0x14, 0x00, 0x00, 0x00, 0x1c, 0x00, 0x00, 0x00, 0x68, 0x01, 0x00, 0x00,
  0x6c, 0x01, 0x00, 0x00, 0x70, 0x01, 0x00, 0x00, 0x04, 0x00, 0x00, 0x00,
  0x6d, 0x61, 0x69, 0x6e, 0x00, 0x00, 0x00, 0x00, 0x05, 0x00, 0x00, 0x00,
  0x10, 0x01, 0x00, 0x00, 0xbc, 0x00, 0x00, 0x00, 0x84, 0x00, 0x00, 0x00,
  0x50, 0x00, 0x00, 0x00, 0x14, 0x00, 0x00, 0x00, 0x00, 0x00, 0x0e, 0x00,
  0x1a, 0x00, 0x14, 0x00, 0x10, 0x00, 0x0c, 0x00, 0x0b, 0x00, 0x04, 0x00,
  0x0e, 0x00, 0x00, 0x00, 0x1c, 0x00, 0x00, 0x00, 0x00, 0x00, 0x00, 0x09,
  0x1c, 0x00, 0x00, 0x00, 0x20, 0x00, 0x00, 0x00, 0x01, 0x00, 0x00, 0x00,
  0x00, 0x00, 0x06, 0x00, 0x08, 0x00, 0x04, 0x00, 0x06, 0x00, 0x00, 0x00,
  0x00, 0x00, 0x80, 0x3f, 0x01, 0x00, 0x00, 0x00, 0x0d, 0x00, 0x00, 0x00,
  0x01, 0x00, 0x00, 0x00, 0x0c, 0x00, 0x00, 0x00, 0x5a, 0xff, 0xff, 0xff,
  0x10, 0x00, 0x00, 0x00, 0x00, 0x00, 0x00, 0x08, 0x0c, 0x00, 0x00, 0x00,
  0x10, 0x00, 0x00, 0x00, 0x14, 0xf4, 0xff, 0xff, 0x01, 0x00, 0x00, 0x00,
  0x0c, 0x00, 0x00, 0x00, 0x03, 0x00, 0x00, 0x00, 0x0b, 0x00, 0x00, 0x00,
  0x05, 0x00, 0x00, 0x00, 0x06, 0x00, 0x00, 0x00, 0x8a, 0xff, 0xff, 0xff,
  0x10, 0x00, 0x00, 0x00, 0x00, 0x00, 0x00, 0x08, 0x10, 0x00, 0x00, 0x00,
  0x14, 0x00, 0x00, 0x00, 0xcc, 0xff, 0xff, 0xff, 0x00, 0x00, 0x01, 0x01,
  0x01, 0x00, 0x00, 0x00, 0x0b, 0x00, 0x00, 0x00, 0x03, 0x00, 0x00, 0x00,
  0x0a, 0x00, 0x00, 0x00, 0x07, 0x00, 0x00, 0x00, 0x04, 0x00, 0x00, 0x00,
  0xbe, 0xff, 0xff, 0xff, 0x1c, 0x00, 0x00, 0x00, 0x00, 0x00, 0x00, 0x08,
  0x1c, 0x00, 0x00, 0x00, 0x20, 0x00, 0x00, 0x00, 0x0c, 0x00, 0x08, 0x00,
  0x07, 0x00, 0x00, 0x00, 0x00, 0x00, 0x06, 0x00, 0x0c, 0x00, 0x00, 0x00,
  0x00, 0x00, 0x01, 0x01, 0x01, 0x00, 0x00, 0x00, 0x0a, 0x00, 0x00, 0x00,
  0x03, 0x00, 0x00, 0x00, 0x09, 0x00, 0x00, 0x00, 0x08, 0x00, 0x00, 0x00,
  0x03, 0x00, 0x00, 0x00, 0x00, 0x00, 0x0e, 0x00, 0x16, 0x00, 0x00, 0x00,
  0x10, 0x00, 0x0c, 0x00, 0x0b, 0x00, 0x04, 0x00, 0x0e, 0x00, 0x00, 0x00,
  0x18, 0x00, 0x00, 0x00, 0x00, 0x00, 0x00, 0x08, 0x18, 0x00, 0x00, 0x00,
  0x1c, 0x00, 0x00, 0x00, 0x00, 0x00, 0x06, 0x00, 0x08, 0x00, 0x07, 0x00,
  0x06, 0x00, 0x00, 0x00, 0x00, 0x00, 0x00, 0x01, 0x01, 0x00, 0x00, 0x00,
  0x09, 0x00, 0x00, 0x00, 0x03, 0x00, 0x00, 0x00, 0x00, 0x00, 0x00, 0x00,
  0x01, 0x00, 0x00, 0x00, 0x02, 0x00, 0x00, 0x00, 0x01, 0x00, 0x00, 0x00,
  0x0d, 0x00, 0x00, 0x00, 0x01, 0x00, 0x00, 0x00, 0x00, 0x00, 0x00, 0x00,
  0x0e, 0x00, 0x00, 0x00, 0xd4, 0x0a, 0x00, 0x00, 0x7c, 0x0a, 0x00, 0x00,
  0x28, 0x0a, 0x00, 0x00, 0xec, 0x09, 0x00, 0x00, 0xb0, 0x09, 0x00, 0x00,
  0x70, 0x09, 0x00, 0x00, 0x34, 0x09, 0x00, 0x00, 0x50, 0x07, 0x00, 0x00,
  0xe0, 0x03, 0x00, 0x00, 0x4c, 0x03, 0x00, 0x00, 0x4c, 0x02, 0x00, 0x00,
  0x48, 0x01, 0x00, 0x00, 0x60, 0x00, 0x00, 0x00, 0x04, 0x00, 0x00, 0x00,
  0x7a, 0xf5, 0xff, 0xff, 0x00, 0x00, 0x00, 0x01, 0x14, 0x00, 0x00, 0x00,
  0x1c, 0x00, 0x00, 0x00, 0x1c, 0x00, 0x00, 0x00, 0x0e, 0x00, 0x00, 0x00,
  0x34, 0x00, 0x00, 0x00, 0x02, 0x00, 0x00, 0x00, 0xff, 0xff, 0xff, 0xff,
  0x05, 0x00, 0x00, 0x00, 0x64, 0xf5, 0xff, 0xff, 0x1b, 0x00, 0x00, 0x00,
  0x53, 0x74, 0x61, 0x74, 0x65, 0x66, 0x75, 0x6c, 0x50, 0x61, 0x72, 0x74,
  0x69, 0x74, 0x69, 0x6f, 0x6e, 0x65, 0x64, 0x43, 0x61, 0x6c, 0x6c, 0x5f,
  0x31, 0x3a, 0x30, 0x00, 0x02, 0x00, 0x00, 0x00, 0x01, 0x00, 0x00, 0x00,
  0x05, 0x00, 0x00, 0x00, 0xd2, 0xf5, 0xff, 0xff, 0x00, 0x00, 0x00, 0x01,
  0x14, 0x00, 0x00, 0x00, 0x1c, 0x00, 0x00, 0x00, 0x1c, 0x00, 0x00, 0x00,
  0x0d, 0x00, 0x00, 0x00, 0xc0, 0x00, 0x00, 0x00, 0x02, 0x00, 0x00, 0x00,
  0xff, 0xff, 0xff, 0xff, 0x05, 0x00, 0x00, 0x00, 0xbc, 0xf5, 0xff, 0xff,
  0xa6, 0x00, 0x00, 0x00, 0x73, 0x65, 0x71, 0x75, 0x65, 0x6e, 0x74, 0x69,
  0x61, 0x6c, 0x5f, 0x31, 0x2f, 0x62, 0x61, 0x74, 0x63, 0x68, 0x5f, 0x6e,
  0x6f, 0x72, 0x6d, 0x61, 0x6c, 0x69, 0x7a, 0x61, 0x74, 0x69, 0x6f, 0x6e,
  0x5f, 0x32, 0x5f, 0x31, 0x2f, 0x62, 0x61, 0x74, 0x63, 0x68, 0x6e, 0x6f,
  0x72, 0x6d, 0x2f, 0x6d, 0x75, 0x6c, 0x5f, 0x31, 0x3b, 0x73, 0x65, 0x71,
  0x75, 0x65, 0x6e, 0x74, 0x69, 0x61, 0x6c, 0x5f, 0x31, 0x2f, 0x62, 0x61,
  0x74, 0x63, 0x68, 0x5f, 0x6e, 0x6f, 0x72, 0x6d, 0x61, 0x6c, 0x69, 0x7a,
  0x61, 0x74, 0x69, 0x6f, 0x6e, 0x5f, 0x32, 0x5f, 0x31, 0x2f, 0x62, 0x61,
  0x74, 0x63, 0x68, 0x6e, 0x6f, 0x72, 0x6d, 0x2f, 0x61, 0x64, 0x64, 0x5f,
  0x31, 0x3b, 0x73, 0x65, 0x71, 0x75, 0x65, 0x6e, 0x74, 0x69, 0x61, 0x6c,
  0x5f, 0x31, 0x2f, 0x64, 0x65, 0x6e, 0x73, 0x65, 0x5f, 0x33, 0x5f, 0x31,
  0x2f, 0x4d, 0x61, 0x74, 0x4d, 0x75, 0x6c, 0x3b, 0x73, 0x65, 0x71, 0x75,
  0x65, 0x6e, 0x74, 0x69, 0x61, 0x6c, 0x5f, 0x31, 0x2f, 0x64, 0x65, 0x6e,
  0x73, 0x65, 0x5f, 0x33, 0x5f, 0x31, 0x2f, 0x42, 0x69, 0x61, 0x73, 0x41,
  0x64, 0x64, 0x00, 0x00, 0x02, 0x00, 0x00, 0x00, 0x01, 0x00, 0x00, 0x00,
  0x05, 0x00, 0x00, 0x00, 0xb6, 0xf6, 0xff, 0xff, 0x00, 0x00, 0x00, 0x01,
  0x14, 0x00, 0x00, 0x00, 0x1c, 0x00, 0x00, 0x00, 0x1c, 0x00, 0x00, 0x00,
  0x0c, 0x00, 0x00, 0x00, 0xdc, 0x00, 0x00, 0x00, 0x02, 0x00, 0x00, 0x00,
  0xff, 0xff, 0xff, 0xff, 0x20, 0x00, 0x00, 0x00, 0xa0, 0xf6, 0xff, 0xff,
  0xc2, 0x00, 0x00, 0x00, 0x73, 0x65, 0x71, 0x75, 0x65, 0x6e, 0x74, 0x69,
  0x61, 0x6c, 0x5f, 0x31, 0x2f, 0x62, 0x61, 0x74, 0x63, 0x68, 0x5f, 0x6e,
  0x6f, 0x72, 0x6d, 0x61, 0x6c, 0x69, 0x7a, 0x61, 0x74, 0x69, 0x6f, 0x6e,
  0x5f, 0x31, 0x5f, 0x32, 0x2f, 0x62, 0x61, 0x74, 0x63, 0x68, 0x6e, 0x6f,
  0x72, 0x6d, 0x2f, 0x6d, 0x75, 0x6c, 0x5f, 0x31, 0x3b, 0x73, 0x65, 0x71,
  0x75, 0x65, 0x6e, 0x74, 0x69, 0x61, 0x6c, 0x5f, 0x31, 0x2f, 0x62, 0x61,
  0x74, 0x63, 0x68, 0x5f, 0x6e, 0x6f, 0x72, 0x6d, 0x61, 0x6c, 0x69, 0x7a,
  0x61, 0x74, 0x69, 0x6f, 0x6e, 0x5f, 0x31, 0x5f, 0x32, 0x2f, 0x62, 0x61,
  0x74, 0x63, 0x68, 0x6e, 0x6f, 0x72, 0x6d, 0x2f, 0x61, 0x64, 0x64, 0x5f,
  0x31, 0x3b, 0x73, 0x65, 0x71, 0x75, 0x65, 0x6e, 0x74, 0x69, 0x61, 0x6c,
  0x5f, 0x31, 0x2f, 0x64, 0x65, 0x6e, 0x73, 0x65, 0x5f, 0x32, 0x5f, 0x31,
  0x2f, 0x4d, 0x61, 0x74, 0x4d, 0x75, 0x6c, 0x3b, 0x73, 0x65, 0x71, 0x75,
  0x65, 0x6e, 0x74, 0x69, 0x61, 0x6c, 0x5f, 0x31, 0x2f, 0x64, 0x65, 0x6e,
  0x73, 0x65, 0x5f, 0x32, 0x5f, 0x31, 0x2f, 0x52, 0x65, 0x6c, 0x75, 0x3b,
  0x73, 0x65, 0x71, 0x75, 0x65, 0x6e, 0x74, 0x69, 0x61, 0x6c, 0x5f, 0x31,
  0x2f, 0x64, 0x65, 0x6e, 0x73, 0x65, 0x5f, 0x32, 0x5f, 0x31, 0x2f, 0x42,
  0x69, 0x61, 0x73, 0x41, 0x64, 0x64, 0x00, 0x00, 0x02, 0x00, 0x00, 0x00,
  0x01, 0x00, 0x00, 0x00, 0x20, 0x00, 0x00, 0x00, 0xb6, 0xf7, 0xff, 0xff,
  0x00, 0x00, 0x00, 0x01, 0x14, 0x00, 0x00, 0x00, 0x1c, 0x00, 0x00, 0x00,
  0x1c, 0x00, 0x00, 0x00, 0x0b, 0x00, 0x00, 0x00, 0xd8, 0x00, 0x00, 0x00,
  0x02, 0x00, 0x00, 0x00, 0xff, 0xff, 0xff, 0xff, 0x40, 0x00, 0x00, 0x00,
  0xa0, 0xf7, 0xff, 0xff, 0xbe, 0x00, 0x00, 0x00, 0x73, 0x65, 0x71, 0x75,
  0x65, 0x6e, 0x74, 0x69, 0x61, 0x6c, 0x5f, 0x31, 0x2f, 0x62, 0x61, 0x74,
  0x63, 0x68, 0x5f, 0x6e, 0x6f, 0x72, 0x6d, 0x61, 0x6c, 0x69, 0x7a, 0x61,
  0x74, 0x69, 0x6f, 0x6e, 0x5f, 0x31, 0x2f, 0x62, 0x61, 0x74, 0x63, 0x68,
  0x6e, 0x6f, 0x72, 0x6d, 0x2f, 0x6d, 0x75, 0x6c, 0x5f, 0x31, 0x3b, 0x73,
  0x65, 0x71, 0x75, 0x65, 0x6e, 0x74, 0x69, 0x61, 0x6c, 0x5f, 0x31, 0x2f,
  0x62, 0x61, 0x74, 0x63, 0x68, 0x5f, 0x6e, 0x6f, 0x72, 0x6d, 0x61, 0x6c,
  0x69, 0x7a, 0x61, 0x74, 0x69, 0x6f, 0x6e, 0x5f, 0x31, 0x2f, 0x62, 0x61,
  0x74, 0x63, 0x68, 0x6e, 0x6f, 0x72, 0x6d, 0x2f, 0x61, 0x64, 0x64, 0x5f,
  0x31, 0x3b, 0x73, 0x65, 0x71, 0x75, 0x65, 0x6e, 0x74, 0x69, 0x61, 0x6c,
  0x5f, 0x31, 0x2f, 0x64, 0x65, 0x6e, 0x73, 0x65, 0x5f, 0x31, 0x5f, 0x32,
  0x2f, 0x4d, 0x61, 0x74, 0x4d, 0x75, 0x6c, 0x3b, 0x73, 0x65, 0x71, 0x75,
  0x65, 0x6e, 0x74, 0x69, 0x61, 0x6c, 0x5f, 0x31, 0x2f, 0x64, 0x65, 0x6e,
  0x73, 0x65, 0x5f, 0x31, 0x5f, 0x32, 0x2f, 0x52, 0x65, 0x6c, 0x75, 0x3b,
  0x73, 0x65, 0x71, 0x75, 0x65, 0x6e, 0x74, 0x69, 0x61, 0x6c, 0x5f, 0x31,
  0x2f, 0x64, 0x65, 0x6e, 0x73, 0x65, 0x5f, 0x31, 0x5f, 0x32, 0x2f, 0x42,
  0x69, 0x61, 0x73, 0x41, 0x64, 0x64, 0x00, 0x00, 0x02, 0x00, 0x00, 0x00,
  0x01, 0x00, 0x00, 0x00, 0x40, 0x00, 0x00, 0x00, 0xb2, 0xf8, 0xff, 0xff,
  0x00, 0x00, 0x00, 0x01, 0x14, 0x00, 0x00, 0x00, 0x1c, 0x00, 0x00, 0x00,
  0x1c, 0x00, 0x00, 0x00, 0x0a, 0x00, 0x00, 0x00, 0x6c, 0x00, 0x00, 0x00,
  0x02, 0x00, 0x00, 0x00, 0xff, 0xff, 0xff, 0xff, 0x40, 0x00, 0x00, 0x00,
  0x9c, 0xf8, 0xff, 0xff, 0x52, 0x00, 0x00, 0x00, 0x73, 0x65, 0x71, 0x75,
  0x65, 0x6e, 0x74, 0x69, 0x61, 0x6c, 0x5f, 0x31, 0x2f, 0x64, 0x65, 0x6e,
  0x73, 0x65, 0x5f, 0x31, 0x2f, 0x4d, 0x61, 0x74, 0x4d, 0x75, 0x6c, 0x3b,
  0x73, 0x65, 0x71, 0x75, 0x65, 0x6e, 0x74, 0x69, 0x61, 0x6c, 0x5f, 0x31,
  0x2f, 0x64, 0x65, 0x6e, 0x73, 0x65, 0x5f, 0x31, 0x2f, 0x52, 0x65, 0x6c,
  0x75, 0x3b, 0x73, 0x65, 0x71, 0x75, 0x65, 0x6e, 0x74, 0x69, 0x61, 0x6c,
  0x5f, 0x31, 0x2f, 0x64, 0x65, 0x6e, 0x73, 0x65, 0x5f, 0x31, 0x2f, 0x42,
  0x69, 0x61, 0x73, 0x41, 0x64, 0x64, 0x00, 0x00, 0x02, 0x00, 0x00, 0x00,
  0x01, 0x00, 0x00, 0x00, 0x40, 0x00, 0x00, 0x00, 0xaa, 0xfc, 0xff, 0xff,
  0x00, 0x00, 0x00, 0x01, 0x14, 0x00, 0x00, 0x00, 0x24, 0x03, 0x00, 0x00,
  0x09, 0x00, 0x00, 0x00, 0x00, 0x00, 0x00, 0x09, 0x30, 0x03, 0x00, 0x00,
  0x94, 0xfc, 0xff, 0xff, 0x08, 0x00, 0x00, 0x00, 0x08, 0x02, 0x00, 0x00,
  0x40, 0x00, 0x00, 0x00, 0x00, 0x00, 0x00, 0x00, 0x00, 0x00, 0x00, 0x00,
  0x00, 0x00, 0x00, 0x00, 0x00, 0x00, 0x00, 0x00, 0x00, 0x00, 0x00, 0x00,
  0x00, 0x00, 0x00, 0x00, 0x00, 0x00, 0x00, 0x00, 0x00, 0x00, 0x00, 0x00,
  0x00, 0x00, 0x00, 0x00, 0x00, 0x00, 0x00, 0x00, 0x00, 0x00, 0x00, 0x00,
  0x00, 0x00, 0x00, 0x00, 0x00, 0x00, 0x00, 0x00, 0x00, 0x00, 0x00, 0x00,
  0x00, 0x00, 0x00, 0x00, 0x00, 0x00, 0x00, 0x00, 0x00, 0x00, 0x00, 0x00,
  0x00, 0x00, 0x00, 0x00, 0x00, 0x00, 0x00, 0x00, 0x00, 0x00, 0x00, 0x00,
  0x00, 0x00, 0x00, 0x00, 0x00, 0x00, 0x00, 0x00, 0x00, 0x00, 0x00, 0x00,
  0x00, 0x00, 0x00, 0x00, 0x00, 0x00, 0x00, 0x00, 0x00, 0x00, 0x00, 0x00,
  0x00, 0x00, 0x00, 0x00, 0x00, 0x00, 0x00, 0x00, 0x00, 0x00, 0x00, 0x00,
  0x00, 0x00, 0x00, 0x00, 0x00, 0x00, 0x00, 0x00, 0x00, 0x00, 0x00, 0x00,
  0x00, 0x00, 0x00, 0x00, 0x00, 0x00, 0x00, 0x00, 0x00, 0x00, 0x00, 0x00,
  0x00, 0x00, 0x00, 0x00, 0x00, 0x00, 0x00, 0x00, 0x00, 0x00, 0x00, 0x00,
  0x00, 0x00, 0x00, 0x00, 0x00, 0x00, 0x00, 0x00, 0x00, 0x00, 0x00, 0x00,
  0x00, 0x00, 0x00, 0x00, 0x00, 0x00, 0x00, 0x00, 0x00, 0x00, 0x00, 0x00,
  0x00, 0x00, 0x00, 0x00, 0x00, 0x00, 0x00, 0x00, 0x00, 0x00, 0x00, 0x00,
  0x00, 0x00, 0x00, 0x00, 0x00, 0x00, 0x00, 0x00, 0x00, 0x00, 0x00, 0x00,
  0x00, 0x00, 0x00, 0x00, 0x00, 0x00, 0x00, 0x00, 0x00, 0x00, 0x00, 0x00,
  0x00, 0x00, 0x00, 0x00, 0x00, 0x00, 0x00, 0x00, 0x00, 0x00, 0x00, 0x00,
  0x00, 0x00, 0x00, 0x00, 0x00, 0x00, 0x00, 0x00, 0x00, 0x00, 0x00, 0x00,
  0x00, 0x00, 0x00, 0x00, 0x00, 0x00, 0x00, 0x00, 0x00, 0x00, 0x00, 0x00,
  0x00, 0x00, 0x00, 0x00, 0x00, 0x00, 0x00, 0x00, 0x00, 0x00, 0x00, 0x00,
  0x00, 0x00, 0x00, 0x00, 0x00, 0x00, 0x00, 0x00, 0x00, 0x00, 0x00, 0x00,
  0x00, 0x00, 0x00, 0x00, 0x00, 0x00, 0x00, 0x00, 0x00, 0x00, 0x00, 0x00,
  0x00, 0x00, 0x00, 0x00, 0x00, 0x00, 0x00, 0x00, 0x00, 0x00, 0x00, 0x00,
  0x00, 0x00, 0x00, 0x00, 0x00, 0x00, 0x00, 0x00, 0x00, 0x00, 0x00, 0x00,
  0x00, 0x00, 0x00, 0x00, 0x00, 0x00, 0x00, 0x00, 0x00, 0x00, 0x00, 0x00,
  0x00, 0x00, 0x00, 0x00, 0x00, 0x00, 0x00, 0x00, 0x00, 0x00, 0x00, 0x00,
  0x00, 0x00, 0x00, 0x00, 0x00, 0x00, 0x00, 0x00, 0x00, 0x00, 0x00, 0x00,
  0x00, 0x00, 0x00, 0x00, 0x00, 0x00, 0x00, 0x00, 0x00, 0x00, 0x00, 0x00,
  0x00, 0x00, 0x00, 0x00, 0x00, 0x00, 0x00, 0x00, 0x00, 0x00, 0x00, 0x00,
  0x00, 0x00, 0x00, 0x00, 0x00, 0x00, 0x00, 0x00, 0x00, 0x00, 0x00, 0x00,
  0x00, 0x00, 0x00, 0x00, 0x00, 0x00, 0x00, 0x00, 0x00, 0x00, 0x00, 0x00,
  0x00, 0x00, 0x00, 0x00, 0x00, 0x00, 0x00, 0x00, 0x00, 0x00, 0x00, 0x00,
  0x00, 0x00, 0x00, 0x00, 0x00, 0x00, 0x00, 0x00, 0x00, 0x00, 0x00, 0x00,
  0x00, 0x00, 0x00, 0x00, 0x00, 0x00, 0x00, 0x00, 0x00, 0x00, 0x00, 0x00,
  0x00, 0x00, 0x00, 0x00, 0x00, 0x00, 0x00, 0x00, 0x00, 0x00, 0x00, 0x00,
  0x00, 0x00, 0x00, 0x00, 0x00, 0x00, 0x00, 0x00, 0x00, 0x00, 0x00, 0x00,
  0x00, 0x00, 0x00, 0x00, 0x00, 0x00, 0x00, 0x00, 0x00, 0x00, 0x00, 0x00,
  0x00, 0x00, 0x00, 0x00, 0x00, 0x00, 0x00, 0x00, 0x00, 0x00, 0x00, 0x00,
  0x00, 0x00, 0x00, 0x00, 0x00, 0x00, 0x00, 0x00, 0x00, 0x00, 0x00, 0x00,
  0x00, 0x00, 0x00, 0x00, 0x00, 0x00, 0x00, 0x00, 0x00, 0x00, 0x00, 0x00,
  0x00, 0x00, 0x00, 0x00, 0x00, 0x00, 0x00, 0x00, 0x00, 0x00, 0x00, 0x00,
  0x40, 0x00, 0x00, 0x00, 0xb2, 0xd8, 0x61, 0x3b, 0xcc, 0xaa, 0xe2, 0x3a,
  0x08, 0x9b, 0x1d, 0x3a, 0xc1, 0x1c, 0x4b, 0x3b, 0x04, 0xe1, 0x19, 0x3a,
  0x6e, 0x94, 0x38, 0x3b, 0x18, 0xf5, 0x49, 0x3a, 0xf3, 0xf5, 0x28, 0x3a,
  0x2f, 0x8c, 0x44, 0x3b, 0xf6, 0x78, 0x2d, 0x3b, 0xe7, 0xa7, 0x40, 0x3a,
  0x21, 0x18, 0x54, 0x3a, 0xd4, 0x7c, 0x4c, 0x3a, 0xa4, 0x1a, 0x29, 0x3a,
  0x5c, 0x1f, 0x24, 0x3b, 0x23, 0x4a, 0x2b, 0x3a, 0x2e, 0xaa, 0x0e, 0x3b,
  0x2c, 0xd8, 0xbd, 0x39, 0x6f, 0x46, 0x52, 0x3b, 0x90, 0x7a, 0x2c, 0x3b,
  0xa3, 0x21, 0xb7, 0x3a, 0xb4, 0x97, 0xff, 0x3b, 0x8b, 0xc4, 0x8e, 0x3a,
  0x54, 0x66, 0x14, 0x3b, 0xda, 0x2c, 0x90, 0x3b, 0x47, 0x28, 0x39, 0x3b,
  0xba, 0xfc, 0x81, 0x3a, 0xbf, 0x3a, 0xec, 0x3a, 0x92, 0x14, 0x7c, 0x3b,
  0x7e, 0xe2, 0xf7, 0x3a, 0xae, 0xce, 0x00, 0x3b, 0xa3, 0x97, 0x29, 0x3b,
  0xc8, 0x26, 0x52, 0x3b, 0xc3, 0xd3, 0xa5, 0x3a, 0xad, 0x4d, 0x95, 0x3b,
  0xca, 0xbe, 0x85, 0x3a, 0xf6, 0x55, 0x8e, 0x3a, 0xed, 0x73, 0x81, 0x3b,
  0xea, 0xb1, 0xf6, 0x3a, 0x33, 0x32, 0x0b, 0x3b, 0x42, 0x91, 0x03, 0x3c,
  0xab, 0x5d, 0x93, 0x3a, 0xe8, 0xdd, 0xa1, 0x3a, 0x1a, 0x61, 0xcd, 0x3a,
  0x76, 0x1e, 0xc4, 0x3a, 0x52, 0x3b, 0x3e, 0x3a, 0x54, 0xfc, 0xbf, 0x3a,
  0x72, 0xb7, 0xa2, 0x3b, 0xd1, 0x6e, 0x72, 0x3b, 0x3a, 0x3a, 0xcf, 0x3a,
  0xd1, 0x9a, 0x75, 0x3b, 0x6e, 0xfb, 0x62, 0x3b, 0x54, 0x7e, 0x25, 0x3b,
  0x07, 0x7e, 0xba, 0x3a, 0xdf, 0x32, 0xbf, 0x3b, 0xbb, 0xdc, 0x9a, 0x3a,
  0xd8, 0xfa, 0x51, 0x3a, 0xdc, 0x80, 0x5f, 0x3b, 0x87, 0x5e, 0x8c, 0x3a,
  0xd8, 0x4b, 0x45, 0x3b, 0x68, 0xd4, 0x0e, 0x3b, 0x62, 0x70, 0x88, 0x3a,
  0x33, 0x24, 0x58, 0x3a, 0xee, 0xf0, 0x41, 0x3b, 0x12, 0x00, 0x00, 0x00,
  0x74, 0x66, 0x6c, 0x2e, 0x70, 0x73, 0x65, 0x75, 0x64, 0x6f, 0x5f, 0x71,
  0x63, 0x6f, 0x6e, 0x73, 0x74, 0x31, 0x00, 0x00, 0x02, 0x00, 0x00, 0x00,
  0x40, 0x00, 0x00, 0x00, 0x40, 0x00, 0x00, 0x00, 0x00, 0x00, 0x16, 0x00,
  0x1c, 0x00, 0x18, 0x00, 0x17, 0x00, 0x10, 0x00, 0x0c, 0x00, 0x08, 0x00,
  0x00, 0x00, 0x00, 0x00, 0x00, 0x00, 0x07, 0x00, 0x16, 0x00, 0x00, 0x00,
  0x00, 0x00, 0x00, 0x01, 0x20, 0x00, 0x00, 0x00, 0xb0, 0x01, 0x00, 0x00,
  0x08, 0x00, 0x00, 0x00, 0x00, 0x00, 0x00, 0x09, 0xbc, 0x01, 0x00, 0x00,
  0x0c, 0x00, 0x0c, 0x00, 0x00, 0x00, 0x00, 0x00, 0x08, 0x00, 0x04, 0x00,
  0x0c, 0x00, 0x00, 0x00, 0x08, 0x00, 0x00, 0x00, 0x08, 0x01, 0x00, 0x00,
  0x20, 0x00, 0x00, 0x00, 0x00, 0x00, 0x00, 0x00, 0x00, 0x00, 0x00, 0x00,
  0x00, 0x00, 0x00, 0x00, 0x00, 0x00, 0x00, 0x00, 0x00, 0x00, 0x00, 0x00,
  0x00, 0x00, 0x00, 0x00, 0x00, 0x00, 0x00, 0x00, 0x00, 0x00, 0x00, 0x00,
  0x00, 0x00, 0x00, 0x00, 0x00, 0x00, 0x00, 0x00, 0x00, 0x00, 0x00, 0x00,
  0x00, 0x00, 0x00, 0x00, 0x00, 0x00, 0x00, 0x00, 0x00, 0x00, 0x00, 0x00,
  0x00, 0x00, 0x00, 0x00, 0x00, 0x00, 0x00, 0x00, 0x00, 0x00, 0x00, 0x00,
  0x00, 0x00, 0x00, 0x00, 0x00, 0x00, 0x00, 0x00, 0x00, 0x00, 0x00, 0x00,
  0x00, 0x00, 0x00, 0x00, 0x00, 0x00, 0x00, 0x00, 0x00, 0x00, 0x00, 0x00,
  0x00, 0x00, 0x00, 0x00, 0x00, 0x00, 0x00, 0x00, 0x00, 0x00, 0x00, 0x00,
  0x00, 0x00, 0x00, 0x00, 0x00, 0x00, 0x00, 0x00, 0x00, 0x00, 0x00, 0x00,
  0x00, 0x00, 0x00, 0x00, 0x00, 0x00, 0x00, 0x00, 0x00, 0x00, 0x00, 0x00,
  0x00, 0x00, 0x00, 0x00, 0x00, 0x00, 0x00, 0x00, 0x00, 0x00, 0x00, 0x00,
  0x00, 0x00, 0x00, 0x00, 0x00, 0x00, 0x00, 0x00, 0x00, 0x00, 0x00, 0x00,
  0x00, 0x00, 0x00, 0x00, 0x00, 0x00, 0x00, 0x00, 0x00, 0x00, 0x00, 0x00,
  0x00, 0x00, 0x00, 0x00, 0x00, 0x00, 0x00, 0x00, 0x00, 0x00, 0x00, 0x00,
  0x00, 0x00, 0x00, 0x00, 0x00, 0x00, 0x00, 0x00, 0x00, 0x00, 0x00, 0x00,
  0x00, 0x00, 0x00, 0x00, 0x00, 0x00, 0x00, 0x00, 0x00, 0x00, 0x00, 0x00,
  0x00, 0x00, 0x00, 0x00, 0x00, 0x00, 0x00, 0x00, 0x00, 0x00, 0x00, 0x00,
  0x00, 0x00, 0x00, 0x00, 0x00, 0x00, 0x00, 0x00, 0x00, 0x00, 0x00, 0x00,
  0x00, 0x00, 0x00, 0x00, 0x00, 0x00, 0x00, 0x00, 0x00, 0x00, 0x00, 0x00,
  0x00, 0x00, 0x00, 0x00, 0x00, 0x00, 0x00, 0x00, 0x00, 0x00, 0x00, 0x00,
  0x00, 0x00, 0x00, 0x00, 0x00, 0x00, 0x00, 0x00, 0x20, 0x00, 0x00, 0x00,
  0xca, 0x07, 0x1f, 0x3b, 0x4a, 0x0c, 0x84, 0x3b, 0x0a, 0xb9, 0x0e, 0x3b,
  0xb7, 0x51, 0x0c, 0x3b, 0x19, 0xea, 0xd4, 0x3b, 0x0e, 0xfd, 0x1e, 0x3b,
  0xa4, 0xb0, 0x00, 0x3b, 0x63, 0x98, 0x82, 0x3b, 0x1e, 0xc0, 0x68, 0x3b,
  0x04, 0x29, 0x0a, 0x3b, 0xd3, 0xf4, 0xa9, 0x3b, 0x30, 0xc7, 0xb4, 0x3b,
  0xc7, 0x3b, 0x1b, 0x3b, 0x75, 0x0e, 0x2b, 0x3b, 0x51, 0x62, 0xc5, 0x3a,
  0xde, 0x9f, 0xc7, 0x3a, 0xa2, 0x01, 0x0f, 0x3b, 0x28, 0x91, 0x21, 0x3b,
  0x79, 0x24, 0x54, 0x3b, 0x68, 0x6c, 0xa4, 0x3b, 0x56, 0x64, 0x94, 0x3b,
  0x27, 0x72, 0x8f, 0x3b, 0xdb, 0xe2, 0x59, 0x3b, 0x43, 0xb1, 0xfa, 0x3a,
  0x6f, 0x12, 0x48, 0x3b, 0x69, 0xc7, 0x72, 0x3b, 0xb0, 0x10, 0xce, 0x3b,
  0x07, 0x1b, 0x69, 0x3b, 0x83, 0x08, 0x64, 0x3b, 0xa4, 0xb3, 0x37, 0x3b,
  0x4a, 0xb4, 0xb8, 0x3b, 0xb3, 0x56, 0x38, 0x3b, 0x11, 0x00, 0x00, 0x00,
  0x74, 0x66, 0x6c, 0x2e, 0x70, 0x73, 0x65, 0x75, 0x64, 0x6f, 0x5f, 0x71,
  0x63, 0x6f, 0x6e, 0x73, 0x74, 0x00, 0x00, 0x00, 0x02, 0x00, 0x00, 0x00,
  0x20, 0x00, 0x00, 0x00, 0x40, 0x00, 0x00, 0x00, 0xe2, 0xfe, 0xff, 0xff,
  0x00, 0x00, 0x00, 0x01, 0x10, 0x00, 0x00, 0x00, 0x10, 0x00, 0x00, 0x00,
  0x07, 0x00, 0x00, 0x00, 0x1c, 0x00, 0x00, 0x00, 0x68, 0xfe, 0xff, 0xff,
  0x0f, 0x00, 0x00, 0x00, 0x61, 0x72, 0x69, 0x74, 0x68, 0x2e, 0x63, 0x6f,
  0x6e, 0x73, 0x74, 0x61, 0x6e, 0x74, 0x35, 0x00, 0x01, 0x00, 0x00, 0x00,
  0x05, 0x00, 0x00, 0x00, 0x1a, 0xff, 0xff, 0xff, 0x00, 0x00, 0x00, 0x01,
  0x10, 0x00, 0x00, 0x00, 0x10, 0x00, 0x00, 0x00, 0x06, 0x00, 0x00, 0x00,
  0x1c, 0x00, 0x00, 0x00, 0xa0, 0xfe, 0xff, 0xff, 0x0f, 0x00, 0x00, 0x00,
  0x61, 0x72, 0x69, 0x74, 0x68, 0x2e, 0x63, 0x6f, 0x6e, 0x73, 0x74, 0x61,
  0x6e, 0x74, 0x34, 0x00, 0x02, 0x00, 0x00, 0x00, 0x05, 0x00, 0x00, 0x00,
  0x20, 0x00, 0x00, 0x00, 0x56, 0xff, 0xff, 0xff, 0x00, 0x00, 0x00, 0x01,
  0x10, 0x00, 0x00, 0x00, 0x10, 0x00, 0x00, 0x00, 0x05, 0x00, 0x00, 0x00,
  0x1c, 0x00, 0x00, 0x00, 0xdc, 0xfe, 0xff, 0xff, 0x0f, 0x00, 0x00, 0x00,
  0x61, 0x72, 0x69, 0x74, 0x68, 0x2e, 0x63, 0x6f, 0x6e, 0x73, 0x74, 0x61,
  0x6e, 0x74, 0x33, 0x00, 0x01, 0x00, 0x00, 0x00, 0x20, 0x00, 0x00, 0x00,
  0x8e, 0xff, 0xff, 0xff, 0x00, 0x00, 0x00, 0x01, 0x10, 0x00, 0x00, 0x00,
  0x10, 0x00, 0x00, 0x00, 0x04, 0x00, 0x00, 0x00, 0x1c, 0x00, 0x00, 0x00,
  0x14, 0xff, 0xff, 0xff, 0x0f, 0x00, 0x00, 0x00, 0x61, 0x72, 0x69, 0x74,
  0x68, 0x2e, 0x63, 0x6f, 0x6e, 0x73, 0x74, 0x61, 0x6e, 0x74, 0x32, 0x00,
  0x01, 0x00, 0x00, 0x00, 0x40, 0x00, 0x00, 0x00, 0xc6, 0xff, 0xff, 0xff,
  0x00, 0x00, 0x00, 0x01, 0x10, 0x00, 0x00, 0x00, 0x10, 0x00, 0x00, 0x00,
  0x03, 0x00, 0x00, 0x00, 0x1c, 0x00, 0x00, 0x00, 0x4c, 0xff, 0xff, 0xff,
  0x0f, 0x00, 0x00, 0x00, 0x61, 0x72, 0x69, 0x74, 0x68, 0x2e, 0x63, 0x6f,
  0x6e, 0x73, 0x74, 0x61, 0x6e, 0x74, 0x31, 0x00, 0x01, 0x00, 0x00, 0x00,
  0x40, 0x00, 0x00, 0x00, 0x00, 0x00, 0x16, 0x00, 0x18, 0x00, 0x14, 0x00,
  0x00, 0x00, 0x10, 0x00, 0x0c, 0x00, 0x08, 0x00, 0x00, 0x00, 0x00, 0x00,
  0x00, 0x00, 0x07, 0x00, 0x16, 0x00, 0x00, 0x00, 0x00, 0x00, 0x00, 0x01,
  0x10, 0x00, 0x00, 0x00, 0x10, 0x00, 0x00, 0x00, 0x02, 0x00, 0x00, 0x00,
  0x1c, 0x00, 0x00, 0x00, 0x9c, 0xff, 0xff, 0xff, 0x0e, 0x00, 0x00, 0x00,
  0x61, 0x72, 0x69, 0x74, 0x68, 0x2e, 0x63, 0x6f, 0x6e, 0x73, 0x74, 0x61,
  0x6e, 0x74, 0x00, 0x00, 0x02, 0x00, 0x00, 0x00, 0x40, 0x00, 0x00, 0x00,
  0x02, 0x00, 0x00, 0x00, 0x00, 0x00, 0x16, 0x00, 0x1c, 0x00, 0x18, 0x00,
  0x00, 0x00, 0x14, 0x00, 0x10, 0x00, 0x0c, 0x00, 0x00, 0x00, 0x00, 0x00,
  0x08, 0x00, 0x07, 0x00, 0x16, 0x00, 0x00, 0x00, 0x00, 0x00, 0x00, 0x01,
  0x14, 0x00, 0x00, 0x00, 0x20, 0x00, 0x00, 0x00, 0x20, 0x00, 0x00, 0x00,
  0x01, 0x00, 0x00, 0x00, 0x3c, 0x00, 0x00, 0x00, 0x02, 0x00, 0x00, 0x00,
  0xff, 0xff, 0xff, 0xff, 0x02, 0x00, 0x00, 0x00, 0x04, 0x00, 0x04, 0x00,
  0x04, 0x00, 0x00, 0x00, 0x1e, 0x00, 0x00, 0x00, 0x73, 0x65, 0x72, 0x76,
  0x69, 0x6e, 0x67, 0x5f, 0x64, 0x65, 0x66, 0x61, 0x75, 0x6c, 0x74, 0x5f,
  0x6b, 0x65, 0x72, 0x61, 0x73, 0x5f, 0x74, 0x65, 0x6e, 0x73, 0x6f, 0x72,
  0x3a, 0x30, 0x00, 0x00, 0x02, 0x00, 0x00, 0x00, 0x01, 0x00, 0x00, 0x00,
  0x02, 0x00, 0x00, 0x00, 0x02, 0x00, 0x00, 0x00, 0x2c, 0x00, 0x00, 0x00,
  0x10, 0x00, 0x00, 0x00, 0x0c, 0x00, 0x0c, 0x00, 0x0b, 0x00, 0x00, 0x00,
  0x00, 0x00, 0x04, 0x00, 0x0c, 0x00, 0x00, 0x00, 0x19, 0x00, 0x00, 0x00,
  0x00, 0x00, 0x00, 0x19, 0x0c, 0x00, 0x10, 0x00, 0x0f, 0x00, 0x00, 0x00,
  0x08, 0x00, 0x04, 0x00, 0x0c, 0x00, 0x00, 0x00, 0x09, 0x00, 0x00, 0x00,
  0x0c, 0x00, 0x00, 0x00, 0x00, 0x00, 0x00, 0x09,
};
const unsigned int dht_classifier_tflite_len = 11936;
